{
  "version": "1.0",
  "truncation": null,
  "padding": null,
  "added_tokens": [
    {
      "id": 0,
      "content": "[UNK]",
      "single_word": false,
      "lstrip": false,
      "rstrip": false,
      "normalized": false,
      "special": true
    },
    {
      "id": 1,
      "content": "[CLS]",
      "single_word": false,
      "lstrip": false,
      "rstrip": false,
      "normalized": false,
      "special": true
    },
    {
      "id": 2,
      "content": "[SEP]",
      "single_word": false,
      "lstrip": false,
      "rstrip": false,
      "normalized": false,
      "special": true
    },
    {
      "id": 3,
      "content": "[PAD]",
      "single_word": false,
      "lstrip": false,
      "rstrip": false,
      "normalized": false,
      "special": true
    },
    {
      "id": 4,
      "content": "[MASK]",
      "single_word": false,
      "lstrip": false,
      "rstrip": false,
      "normalized": false,
      "special": true
    }
  ],
  "normalizer": null,
  "pre_tokenizer": {
    "type": "Whitespace"
  },
  "post_processor": null,
  "decoder": null,
  "model": {
    "type": "BPE",
    "dropout": null,
    "unk_token": "[UNK]",
    "continuing_subword_prefix": null,
    "end_of_word_suffix": null,
    "fuse_unk": false,
    "byte_fallback": false,
    "ignore_merges": false,
    "vocab": {
      "[UNK]": 0,
      "[CLS]": 1,
      "[SEP]": 2,
      "[PAD]": 3,
      "[MASK]": 4,
      "!": 5,
      "\"": 6,
      "$": 7,
      "%": 8,
      "&": 9,
      "'": 10,
      "(": 11,
      ")": 12,
      "*": 13,
      "+": 14,
      ",": 15,
      "-": 16,
      ".": 17,
      "/": 18,
      "0": 19,
      "1": 20,
      "2": 21,
      "3": 22,
      "4": 23,
      "5": 24,
      "6": 25,
      "7": 26,
      "8": 27,
      "9": 28,
      ":": 29,
      ";": 30,
      "=": 31,
      "?": 32,
      "@": 33,
      "A": 34,
      "B": 35,
      "C": 36,
      "D": 37,
      "E": 38,
      "F": 39,
      "G": 40,
      "H": 41,
      "I": 42,
      "J": 43,
      "K": 44,
      "L": 45,
      "M": 46,
      "N": 47,
      "O": 48,
      "P": 49,
      "Q": 50,
      "R": 51,
      "S": 52,
      "T": 53,
      "U": 54,
      "V": 55,
      "W": 56,
      "X": 57,
      "Y": 58,
      "Z": 59,
      "[": 60,
      "]": 61,
      "`": 62,
      "a": 63,
      "b": 64,
      "c": 65,
      "d": 66,
      "e": 67,
      "f": 68,
      "g": 69,
      "h": 70,
      "i": 71,
      "j": 72,
      "k": 73,
      "l": 74,
      "m": 75,
      "n": 76,
      "o": 77,
      "p": 78,
      "q": 79,
      "r": 80,
      "s": 81,
      "t": 82,
      "u": 83,
      "v": 84,
      "w": 85,
      "x": 86,
      "y": 87,
      "z": 88,
      "|": 89,
      "~": 90,
      "£": 91,
      "­": 92,
      "®": 93,
      "·": 94,
      "¼": 95,
      "½": 96,
      "à": 97,
      "è": 98,
      "ñ": 99,
      "β": 100,
      "अ": 101,
      "ए": 102,
      "ज": 103,
      "ड": 104,
      "ल": 105,
      "स": 106,
      "ी": 107,
      "–": 108,
      "—": 109,
      "―": 110,
      "‘": 111,
      "’": 112,
      "“": 113,
      "”": 114,
      "‟": 115,
      "•": 116,
      "…": 117,
      "₹": 118,
      "∞": 119,
      "": 120,
      "": 121,
      "th": 122,
      "the": 123,
      "on": 124,
      "in": 125,
      "er": 126,
      "..": 127,
      "an": 128,
      "of": 129,
      "or": 130,
      "en": 131,
      "ed": 132,
      "at": 133,
      "is": 134,
      "re": 135,
      "ion": 136,
      "al": 137,
      "to": 138,
      "as": 139,
      "....": 140,
      "it": 141,
      "es": 142,
      "ar": 143,
      "ing": 144,
      "ent": 145,
      "ct": 146,
      "ou": 147,
      "and": 148,
      "ce": 149,
      "be": 150,
      "ch": 151,
      "se": 152,
      "su": 153,
      "le": 154,
      "for": 155,
      "ro": 156,
      "st": 157,
      "de": 158,
      "........": 159,
      "ment": 160,
      "wh": 161,
      "der": 162,
      "that": 163,
      "un": 164,
      "he": 165,
      "no": 166,
      "pe": 167,
      "im": 168,
      "ic": 169,
      "by": 170,
      "per": 171,
      "il": 172,
      "ation": 173,
      "ction": 174,
      "om": 175,
      "con": 176,
      "pro": 177,
      "our": 178,
      "ate": 179,
      "ap": 180,
      "id": 181,
      "ma": 182,
      "wi": 183,
      "all": 184,
      "with": 185,
      "any": 186,
      "ab": 187,
      "cu": 188,
      "sh": 189,
      "ag": 190,
      "ter": 191,
      "ourt": 192,
      "not": 193,
      "ant": 194,
      "ence": 195,
      "ex": 196,
      "ri": 197,
      "po": 198,
      "ve": 199,
      "com": 200,
      "ly": 201,
      "Court": 202,
      "am": 203,
      "20": 204,
      "ther": 205,
      "la": 206,
      "ad": 207,
      "li": 208,
      "whi": 209,
      "was": 210,
      "res": 211,
      "ur": 212,
      "ver": 213,
      "which": 214,
      "ac": 215,
      "ir": 216,
      "such": 217,
      "ess": 218,
      "if": 219,
      "son": 220,
      "off": 221,
      "able": 222,
      "tr": 223,
      "under": 224,
      "ll": 225,
      "person": 226,
      "ig": 227,
      "sed": 228,
      "The": 229,
      "qu": 230,
      "shall": 231,
      "................": 232,
      "ere": 233,
      "appe": 234,
      "ted": 235,
      "pr": 236,
      "may": 237,
      "ta": 238,
      "end": 239,
      "section": 240,
      "tion": 241,
      "oun": 242,
      "act": 243,
      "so": 244,
      "has": 245,
      "au": 246,
      "ld": 247,
      "vi": 248,
      "sub": 249,
      "ow": 250,
      "cas": 251,
      "par": 252,
      "this": 253,
      "di": 254,
      "mit": 255,
      "--": 256,
      "ay": 257,
      "ha": 258,
      "No": 259,
      "ty": 260,
      "ud": 261,
      "In": 262,
      "his": 263,
      "fin": 264,
      "iv": 265,
      "19": 266,
      "ated": 267,
      "dis": 268,
      "order": 269,
      "vid": 270,
      "other": 271,
      "est": 272,
      "int": 273,
      "are": 274,
      "ul": 275,
      "pl": 276,
      "pon": 277,
      "ord": 278,
      "ition": 279,
      "ear": 280,
      "case": 281,
      "Se": 282,
      "ison": 283,
      "cl": 284,
      "rom": 285,
      "there": 286,
      "ish": 287,
      "from": 288,
      "offence": 289,
      "istr": 290,
      "ge": 291,
      "prison": 292,
      "ut": 293,
      "llant": 294,
      "ance": 295,
      "mis": 296,
      "pos": 297,
      "em": 298,
      "ity": 299,
      "fore": 300,
      "ail": 301,
      "been": 302,
      "do": 303,
      "out": 304,
      "pla": 305,
      "du": 306,
      "aid": 307,
      "Mag": 308,
      "Magistr": 309,
      "prisonment": 310,
      "us": 311,
      "igh": 312,
      "af": 313,
      "gh": 314,
      "appellant": 315,
      "202": 316,
      "Magistrate": 317,
      "age": 318,
      "ive": 319,
      "ame": 320,
      "over": 321,
      "cused": 322,
      "ould": 323,
      "cord": 324,
      "part": 325,
      "have": 326,
      "pre": 327,
      "year": 328,
      "Section": 329,
      "ort": 330,
      "fe": 331,
      "fer": 332,
      "ke": 333,
      "10": 334,
      "ision": 335,
      "accused": 336,
      "one": 337,
      "ial": 338,
      "ies": 339,
      "sion": 340,
      "inst": 341,
      "od": 342,
      "mitted": 343,
      "ned": 344,
      "tri": 345,
      "co": 346,
      "ru": 347,
      "ard": 348,
      "fine": 349,
      "si": 350,
      "pu": 351,
      "pres": 352,
      "High": 353,
      "made": 354,
      "iz": 355,
      "Wh": 356,
      "icer": 357,
      "proper": 358,
      "imprisonment": 359,
      "ass": 360,
      "also": 361,
      "pond": 362,
      "term": 363,
      "ever": 364,
      "ary": 365,
      "unish": 366,
      "had": 367,
      "ure": 368,
      "we": 369,
      "vidence": 370,
      "years": 371,
      "St": 372,
      "ill": 373,
      "before": 374,
      "punish": 375,
      "pondent": 376,
      "---": 377,
      "ous": 378,
      "cau": 379,
      "ext": 380,
      "prov": 381,
      "fact": 382,
      "et": 383,
      "char": 384,
      "evidence": 385,
      "dec": 386,
      "who": 387,
      "ser": 388,
      "him": 389,
      "ication": 390,
      "law": 391,
      "ust": 392,
      "ob": 393,
      "Act": 394,
      "ree": 395,
      "ime": 396,
      "form": 397,
      "tain": 398,
      "said": 399,
      "ceed": 400,
      "red": 401,
      "property": 402,
      "ession": 403,
      "ra": 404,
      "pur": 405,
      "00": 406,
      "State": 407,
      "je": 408,
      "leg": 409,
      "inter": 410,
      "201": 411,
      "bl": 412,
      "ne": 413,
      "rit": 414,
      "record": 415,
      "cted": 416,
      "ound": 417,
      "ef": 418,
      "Ap": 419,
      "ced": 420,
      "secu": 421,
      "me": 422,
      "ght": 423,
      "port": 424,
      "after": 425,
      "respondent": 426,
      "overn": 427,
      "jud": 428,
      "here": 429,
      "its": 430,
      "Appe": 431,
      "gn": 432,
      "op": 433,
      "gr": 434,
      "overnment": 435,
      "were": 436,
      "av": 437,
      "fir": 438,
      "12": 439,
      "sent": 440,
      "sel": 441,
      "proceed": 442,
      "mission": 443,
      "ans": 444,
      "time": 445,
      "It": 446,
      "ces": 447,
      "aga": 448,
      "Government": 449,
      "officer": 450,
      "mon": 451,
      "ol": 452,
      "king": 453,
      "coun": 454,
      "ting": 455,
      "vant": 456,
      "um": 457,
      "................................": 458,
      "spe": 459,
      "bo": 460,
      "appeal": 461,
      "reas": 462,
      "lice": 463,
      "mat": 464,
      "11": 465,
      "comp": 466,
      "gniz": 467,
      "can": 468,
      "same": 469,
      "would": 470,
      "quir": 471,
      "against": 472,
      "oc": 473,
      "Pro": 474,
      "ev": 475,
      "dated": 476,
      "NT": 477,
      "issu": 478,
      "lear": 479,
      "ness": 480,
      "ath": 481,
      "blic": 482,
      "............": 483,
      "dire": 484,
      "inal": 485,
      "her": 486,
      "ise": 487,
      "appl": 488,
      "reason": 489,
      "pt": 490,
      "state": 491,
      "cer": 492,
      "extend": 493,
      "being": 494,
      "where": 495,
      "Ex": 496,
      "ments": 497,
      "ally": 498,
      "cla": 499,
      "des": 500,
      "amin": 501,
      "14": 502,
      "Jud": 503,
      "fil": 504,
      "Indi": 505,
      "ption": 506,
      "te": 507,
      "reg": 508,
      "ied": 509,
      "..............": 510,
      "ailable": 511,
      "sider": 512,
      "now": 513,
      "wer": 514,
      "rele": 515,
      "ENT": 516,
      "cess": 517,
      "ber": 518,
      "ject": 519,
      "Cr": 520,
      "when": 521,
      "Co": 522,
      "2023": 523,
      "..............................................": 524,
      "sum": 525,
      "ivil": 526,
      "PW": 527,
      "thor": 528,
      "examin": 529,
      "ecu": 530,
      "consider": 531,
      "committed": 532,
      "itness": 533,
      "judg": 534,
      "cond": 535,
      "cont": 536,
      "proceeding": 537,
      "cri": 538,
      "ating": 539,
      "ist": 540,
      "but": 541,
      "pet": 542,
      "cr": 543,
      "ong": 544,
      "ank": 545,
      "SC": 546,
      "ither": 547,
      "ased": 548,
      "giv": 549,
      "witness": 550,
      "inv": 551,
      "vided": 552,
      "cause": 553,
      "pay": 554,
      "docu": 555,
      "gnizable": 556,
      "18": 557,
      "both": 558,
      "MENT": 559,
      "present": 560,
      "police": 561,
      "JU": 562,
      "upon": 563,
      "man": 564,
      "ire": 565,
      "ice": 566,
      "har": 567,
      "200": 568,
      "trial": 569,
      "mo": 570,
      "writ": 571,
      "ken": 572,
      "public": 573,
      "ew": 574,
      "ful": 575,
      "know": 576,
      "first": 577,
      "ward": 578,
      "land": 579,
      "DG": 580,
      "ach": 581,
      "Ar": 582,
      "nat": 583,
      "ates": 584,
      "13": 585,
      "Sing": 586,
      "court": 587,
      "Ch": 588,
      "either": 589,
      "Appeal": 590,
      "JUDG": 591,
      "appear": 592,
      "India": 593,
      "JUDGMENT": 594,
      "15": 595,
      "rest": 596,
      "compla": 597,
      "),": 598,
      "……": 599,
      "within": 600,
      "gu": 601,
      "spec": 602,
      "charge": 603,
      "provision": 604,
      "pect": 605,
      "ip": 606,
      "author": 607,
      "ii": 608,
      "bet": 609,
      "iminal": 610,
      "judgment": 611,
      "application": 612,
      "San": 613,
      "rel": 614,
      "death": 615,
      "peri": 616,
      "An": 617,
      "Page": 618,
      "own": 619,
      "ving": 620,
      "amoun": 621,
      "16": 622,
      "fur": 623,
      "use": 624,
      "execu": 625,
      "only": 626,
      "17": 627,
      "arr": 628,
      "go": 629,
      "power": 630,
      "ff": 631,
      "med": 632,
      "than": 633,
      "Civil": 634,
      "filed": 635,
      "less": 636,
      "att": 637,
      "set": 638,
      "convi": 639,
      "will": 640,
      "De": 641,
      "ques": 642,
      "fo": 643,
      "ough": 644,
      "itu": 645,
      "amount": 646,
      "right": 647,
      "led": 648,
      "interest": 649,
      "commit": 650,
      "ferred": 651,
      "PC": 652,
      "ind": 653,
      "ten": 654,
      "inform": 655,
      "without": 656,
      "Su": 657,
      "Re": 658,
      "period": 659,
      "learned": 660,
      "Com": 661,
      "comm": 662,
      "ss": 663,
      "pri": 664,
      "def": 665,
      "ention": 666,
      "suit": 667,
      "ho": 668,
      "respect": 669,
      "Con": 670,
      "punished": 671,
      "poss": 672,
      "taken": 673,
      "ised": 674,
      "held": 675,
      "question": 676,
      "day": 677,
      "ily": 678,
      "petition": 679,
      "persons": 680,
      "view": 681,
      "mar": 682,
      "jur": 683,
      "sto": 684,
      "estig": 685,
      "lect": 686,
      "ase": 687,
      "lt": 688,
      "ory": 689,
      "pose": 690,
      "ens": 691,
      "whe": 692,
      "come": 693,
      "Im": 694,
      "ved": 695,
      "their": 696,
      "sentence": 697,
      "whether": 698,
      "descri": 699,
      "place": 700,
      "inc": 701,
      "ified": 702,
      "hit": 703,
      "sp": 704,
      "into": 705,
      "claim": 706,
      "pas": 707,
      "thing": 708,
      "quired": 709,
      "statement": 710,
      "relevant": 711,
      "Singh": 712,
      "ouse": 713,
      "25": 714,
      "report": 715,
      "const": 716,
      "SCC": 717,
      "put": 718,
      "Who": 719,
      "ide": 720,
      "ine": 721,
      "ore": 722,
      "ident": 723,
      "Th": 724,
      "Judge": 725,
      "passed": 726,
      "fa": 727,
      "ue": 728,
      "erc": 729,
      "name": 730,
      "offen": 731,
      "Whoever": 732,
      "Session": 733,
      "ged": 734,
      "ON": 735,
      "incl": 736,
      "provisions": 737,
      "life": 738,
      "Sanhit": 739,
      "If": 740,
      "tw": 741,
      "2024": 742,
      "further": 743,
      "Sanhita": 744,
      "lo": 745,
      "given": 746,
      "ations": 747,
      "facts": 748,
      "submitted": 749,
      "cannot": 750,
      "decision": 751,
      "matter": 752,
      "used": 753,
      "they": 754,
      "sequ": 755,
      "find": 756,
      "description": 757,
      "ircu": 758,
      "30": 759,
      "liable": 760,
      "Rs": 761,
      "sal": 762,
      "read": 763,
      "investig": 764,
      "ild": 765,
      "llow": 766,
      "house": 767,
      "possession": 768,
      "plo": 769,
      "Non": 770,
      "OF": 771,
      "32": 772,
      "month": 773,
      "Imprisonment": 774,
      "When": 775,
      "follow": 776,
      "There": 777,
      "tained": 778,
      "pees": 779,
      "IN": 780,
      "circu": 781,
      "ical": 782,
      "ble": 783,
      "date": 784,
      "document": 785,
      "ven": 786,
      "199": 787,
      "contr": 788,
      "secution": 789,
      "app": 790,
      "rece": 791,
      "ceased": 792,
      "does": 793,
      "alleg": 794,
      "ple": 795,
      "she": 796,
      "purpose": 797,
      "self": 798,
      "having": 799,
      "proceedings": 800,
      "ak": 801,
      "produ": 802,
      "fect": 803,
      "pend": 804,
      "ond": 805,
      "SL": 806,
      "just": 807,
      "decree": 808,
      "two": 809,
      "should": 810,
      "This": 811,
      "circum": 812,
      "por": 813,
      "ances": 814,
      "arrant": 815,
      "On": 816,
      "nature": 817,
      "bit": 818,
      "condition": 819,
      "take": 820,
      "icial": 821,
      "subject": 822,
      "recorded": 823,
      "ner": 824,
      "clar": 825,
      "examination": 826,
      ".—": 827,
      "circumst": 828,
      "warrant": 829,
      "arrest": 830,
      "exerc": 831,
      "direct": 832,
      "For": 833,
      "22": 834,
      "SLP": 835,
      "see": 836,
      "ended": 837,
      "ground": 838,
      "requ": 839,
      "000": 840,
      "issued": 841,
      "abo": 842,
      "parties": 843,
      "counsel": 844,
      "stand": 845,
      "allow": 846,
      "ign": 847,
      "Or": 848,
      "Tri": 849,
      "cases": 850,
      "rupees": 851,
      "above": 852,
      "depos": 853,
      "etc": 854,
      "ks": 855,
      "make": 856,
      "ently": 857,
      "main": 858,
      "trans": 859,
      "plan": 860,
      "way": 861,
      "ought": 862,
      "sing": 863,
      "prosecution": 864,
      "Ac": 865,
      "ious": 866,
      "ief": 867,
      "He": 868,
      "punishable": 869,
      "As": 870,
      "dy": 871,
      "deceased": 872,
      "Cognizable": 873,
      "hal": 874,
      "herein": 875,
      "val": 876,
      "trict": 877,
      "servant": 878,
      ").": 879,
      "ising": 880,
      "appellants": 881,
      "grant": 882,
      "ral": 883,
      "add": 884,
      "posed": 885,
      "ret": 886,
      "vice": 887,
      "Provided": 888,
      "ER": 889,
      "23": 890,
      "criminal": 891,
      "tic": 892,
      "ient": 893,
      "ules": 894,
      "acqu": 895,
      "ges": 896,
      "hi": 897,
      "tor": 898,
      "up": 899,
      "class": 900,
      "circumstances": 901,
      "II": 902,
      "We": 903,
      "more": 904,
      "them": 905,
      "ister": 906,
      "includ": 907,
      "fr": 908,
      "tif": 909,
      "dismis": 910,
      "legal": 911,
      "could": 912,
      "stated": 913,
      "ular": 914,
      "half": 915,
      "Ad": 916,
      "fi": 917,
      "manner": 918,
      "must": 919,
      "cept": 920,
      "cording": 921,
      "ctions": 922,
      "required": 923,
      "sup": 924,
      "ren": 925,
      "24": 926,
      "Bank": 927,
      "opin": 928,
      "investigation": 929,
      "lied": 930,
      "cognizable": 931,
      "/-": 932,
      "owever": 933,
      "Off": 934,
      "like": 935,
      "bailable": 936,
      "declar": 937,
      "Any": 938,
      "good": 939,
      "ome": 940,
      "proved": 941,
      "21": 942,
      "ited": 943,
      "while": 944,
      "means": 945,
      "appro": 946,
      "uring": 947,
      "Dis": 948,
      "ya": 949,
      "rev": 950,
      "regard": 951,
      "IR": 952,
      "isdi": 953,
      "27": 954,
      "ative": 955,
      "complaint": 956,
      "ok": 957,
      "mention": 958,
      "26": 959,
      "ts": 960,
      "complain": 961,
      "witnesses": 962,
      "opinion": 963,
      "isdiction": 964,
      "Pr": 965,
      "cor": 966,
      "ash": 967,
      "cur": 968,
      "planation": 969,
      "provided": 970,
      "notice": 971,
      "necess": 972,
      "min": 973,
      "whom": 974,
      "condu": 975,
      "Bailable": 976,
      "lim": 977,
      "three": 978,
      "ities": 979,
      "months": 980,
      ".,": 981,
      "br": 982,
      "commission": 983,
      "quiry": 984,
      "ain": 985,
      ".”": 986,
      "wor": 987,
      "jurisdiction": 988,
      "force": 989,
      "respondents": 990,
      "issue": 991,
      "vide": 992,
      "mater": 993,
      "certain": 994,
      "35": 995,
      "hand": 996,
      "ers": 997,
      "ility": 998,
      "due": 999,
      "Res": 1000,
      "cy": 1001,
      "ite": 1002,
      "itution": 1003,
      "bel": 1004,
      "unt": 1005,
      "terms": 1006,
      "ave": 1007,
      "wise": 1008,
      "alse": 1009,
      "writing": 1010,
      "Cent": 1011,
      "bond": 1012,
      "ual": 1013,
      "deed": 1014,
      "payment": 1015,
      "complainant": 1016,
      "gned": 1017,
      "custo": 1018,
      "ification": 1019,
      "partic": 1020,
      "pugned": 1021,
      "ween": 1022,
      "compens": 1023,
      "ploy": 1024,
      "give": 1025,
      "beli": 1026,
      "child": 1027,
      "ci": 1028,
      "bail": 1029,
      "pass": 1030,
      "even": 1031,
      "authority": 1032,
      "intention": 1033,
      "between": 1034,
      "information": 1035,
      "award": 1036,
      "paid": 1037,
      "found": 1038,
      "material": 1039,
      "iff": 1040,
      "29": 1041,
      "ati": 1042,
      "show": 1043,
      "sale": 1044,
      "Central": 1045,
      "employ": 1046,
      "referred": 1047,
      "allowed": 1048,
      "false": 1049,
      "behalf": 1050,
      "sol": 1051,
      "punishment": 1052,
      "wom": 1053,
      "reat": 1054,
      "concer": 1055,
      "Code": 1056,
      "compensation": 1057,
      "did": 1058,
      "non": 1059,
      "reement": 1060,
      "Explanation": 1061,
      "otherwise": 1062,
      "plaint": 1063,
      "necessary": 1064,
      "about": 1065,
      "lig": 1066,
      "lawful": 1067,
      "obser": 1068,
      "call": 1069,
      "clear": 1070,
      "sur": 1071,
      "Where": 1072,
      "effect": 1073,
      "summon": 1074,
      "District": 1075,
      "ault": 1076,
      "finding": 1077,
      "28": 1078,
      "IT": 1079,
      "ital": 1080,
      "let": 1081,
      "Criminal": 1082,
      "knowing": 1083,
      "38": 1084,
      "abet": 1085,
      "ref": 1086,
      "refer": 1087,
      "unless": 1088,
      "lectr": 1089,
      "Officer": 1090,
      "01": 1091,
      "ener": 1092,
      "making": 1093,
      "ship": 1094,
      "riev": 1095,
      "documents": 1096,
      "point": 1097,
      "constru": 1098,
      "band": 1099,
      "griev": 1100,
      "arily": 1101,
      "197": 1102,
      "ION": 1103,
      "den": 1104,
      "mand": 1105,
      "poses": 1106,
      "mentioned": 1107,
      "cour": 1108,
      "ep": 1109,
      "ordin": 1110,
      "following": 1111,
      "likely": 1112,
      "exp": 1113,
      "195": 1114,
      "entit": 1115,
      "und": 1116,
      "impugned": 1117,
      "Chief": 1118,
      "…………": 1119,
      "ose": 1120,
      "rough": 1121,
      "custody": 1122,
      "Un": 1123,
      "deal": 1124,
      "accoun": 1125,
      "well": 1126,
      "service": 1127,
      "inquiry": 1128,
      "atis": 1129,
      "abl": 1130,
      "clus": 1131,
      "offences": 1132,
      "particular": 1133,
      "Ru": 1134,
      "bre": 1135,
      "hur": 1136,
      "very": 1137,
      "ft": 1138,
      "process": 1139,
      "ending": 1140,
      "FIR": 1141,
      "done": 1142,
      "during": 1143,
      "ger": 1144,
      "ying": 1145,
      "party": 1146,
      "el": 1147,
      "satis": 1148,
      "onic": 1149,
      "execution": 1150,
      "alleged": 1151,
      "However": 1152,
      "directed": 1153,
      "CrPC": 1154,
      "ished": 1155,
      "consideration": 1156,
      "receiv": 1157,
      "through": 1158,
      "usband": 1159,
      "lectronic": 1160,
      "course": 1161,
      "some": 1162,
      "clause": 1163,
      "08": 1164,
      "AP": 1165,
      "afor": 1166,
      "cial": 1167,
      "conviction": 1168,
      "hold": 1169,
      "hurt": 1170,
      "though": 1171,
      "34": 1172,
      "OR": 1173,
      "husband": 1174,
      "suff": 1175,
      "cedure": 1176,
      "guil": 1177,
      "AT": 1178,
      "urder": 1179,
      "plaintiff": 1180,
      "36": 1181,
      "cre": 1182,
      "ustr": 1183,
      "attem": 1184,
      "09": 1185,
      "esaid": 1186,
      "aya": 1187,
      "contract": 1188,
      "suffic": 1189,
      "ior": 1190,
      "thereof": 1191,
      "entitled": 1192,
      "aforesaid": 1193,
      "electronic": 1194,
      "mem": 1195,
      "iness": 1196,
      "aring": 1197,
      "adv": 1198,
      "conduct": 1199,
      "07": 1200,
      "murder": 1201,
      "then": 1202,
      "these": 1203,
      "orig": 1204,
      "Bhar": 1205,
      "loc": 1206,
      "convicted": 1207,
      "fail": 1208,
      "disput": 1209,
      "charged": 1210,
      "37": 1211,
      "enter": 1212,
      "days": 1213,
      "06": 1214,
      "aj": 1215,
      "mort": 1216,
      "specif": 1217,
      "exercise": 1218,
      "Po": 1219,
      "bus": 1220,
      "position": 1221,
      "woman": 1222,
      "bro": 1223,
      "sult": 1224,
      "offender": 1225,
      "apply": 1226,
      "——": 1227,
      "ents": 1228,
      "Ill": 1229,
      "bank": 1230,
      "ctor": 1231,
      "icate": 1232,
      "post": 1233,
      "every": 1234,
      "object": 1235,
      "secur": 1236,
      "register": 1237,
      "Therefore": 1238,
      "IPC": 1239,
      "pen": 1240,
      "letter": 1241,
      "rong": 1242,
      "what": 1243,
      "expres": 1244,
      "198": 1245,
      "raw": 1246,
      "dismissed": 1247,
      "sufficient": 1248,
      "Illustr": 1249,
      "ses": 1250,
      "purposes": 1251,
      "47": 1252,
      "Pet": 1253,
      "avour": 1254,
      "Ben": 1255,
      "Man": 1256,
      "bu": 1257,
      "han": 1258,
      "inted": 1259,
      "ross": 1260,
      "applic": 1261,
      "04": 1262,
      "ju": 1263,
      "income": 1264,
      "..............................................(": 1265,
      "appropri": 1266,
      "Respondent": 1267,
      "came": 1268,
      "cover": 1269,
      "llate": 1270,
      "thereby": 1271,
      "cop": 1272,
      "reasons": 1273,
      "reasonable": 1274,
      "ticle": 1275,
      "atiya": 1276,
      "Bharatiya": 1277,
      "TH": 1278,
      "deli": 1279,
      "2019": 1280,
      "car": 1281,
      "cap": 1282,
      "ince": 1283,
      "consequ": 1284,
      "ately": 1285,
      "specified": 1286,
      "concerned": 1287,
      "kes": 1288,
      "sig": 1289,
      "subst": 1290,
      "mean": 1291,
      "Pu": 1292,
      "ben": 1293,
      "arch": 1294,
      "Appellant": 1295,
      "bed": 1296,
      "draw": 1297,
      "urn": 1298,
      "business": 1299,
      "Rules": 1300,
      "you": 1301,
      "iffer": 1302,
      "taking": 1303,
      "2022": 1304,
      "appears": 1305,
      "Sub": 1306,
      "eneral": 1307,
      "RE": 1308,
      "each": 1309,
      "favour": 1310,
      "tal": 1311,
      "thus": 1312,
      "agreement": 1313,
      "establ": 1314,
      "sible": 1315,
      "termin": 1316,
      "Commission": 1317,
      "differ": 1318,
      "lay": 1319,
      "prev": 1320,
      "five": 1321,
      "himself": 1322,
      "require": 1323,
      "declaration": 1324,
      "05": 1325,
      "test": 1326,
      "tive": 1327,
      "2021": 1328,
      "Const": 1329,
      "PE": 1330,
      "sim": 1331,
      "sure": 1332,
      "security": 1333,
      "fac": 1334,
      "mone": 1335,
      "appre": 1336,
      "sha": 1337,
      "short": 1338,
      "intent": 1339,
      "AL": 1340,
      "action": 1341,
      "oper": 1342,
      "itation": 1343,
      "executed": 1344,
      "summons": 1345,
      "AN": 1346,
      "Sh": 1347,
      "bas": 1348,
      "bitr": 1349,
      "Trial": 1350,
      "num": 1351,
      "pted": 1352,
      "word": 1353,
      "Ram": 1354,
      "ai": 1355,
      "injur": 1356,
      "defin": 1357,
      "tax": 1358,
      "comple": 1359,
      "Bench": 1360,
      "31": 1361,
      "another": 1362,
      "aside": 1363,
      "itiz": 1364,
      "amily": 1365,
      "orders": 1366,
      "ready": 1367,
      "conditions": 1368,
      "guilty": 1369,
      "benef": 1370,
      "mer": 1371,
      "esh": 1372,
      "iding": 1373,
      "ult": 1374,
      "IS": 1375,
      "deem": 1376,
      "Crl": 1377,
      "Police": 1378,
      "my": 1379,
      "consent": 1380,
      "pointed": 1381,
      "itional": 1382,
      "commun": 1383,
      "remain": 1384,
      "commits": 1385,
      "Rule": 1386,
      "dispute": 1387,
      "registered": 1388,
      "money": 1389,
      "wrong": 1390,
      "ched": 1391,
      "imon": 1392,
      "try": 1393,
      "sections": 1394,
      "2017": 1395,
      "deposit": 1396,
      "45": 1397,
      "Ny": 1398,
      "bt": 1399,
      "down": 1400,
      "ability": 1401,
      "Nyaya": 1402,
      "ack": 1403,
      "2015": 1404,
      "wards": 1405,
      "acquit": 1406,
      "account": 1407,
      "jo": 1408,
      "represent": 1409,
      "lease": 1410,
      "whose": 1411,
      "crime": 1412,
      "relation": 1413,
      "granted": 1414,
      "Public": 1415,
      "equ": 1416,
      "ith": 1417,
      "therefore": 1418,
      "ute": 1419,
      "produced": 1420,
      "original": 1421,
      "mortg": 1422,
      "tit": 1423,
      "seven": 1424,
      "cogniz": 1425,
      "written": 1426,
      "marri": 1427,
      "48": 1428,
      "cross": 1429,
      "indu": 1430,
      "exist": 1431,
      "subsequ": 1432,
      "charges": 1433,
      "Sessions": 1434,
      "including": 1435,
      "basis": 1436,
      "bun": 1437,
      "fit": 1438,
      "ousand": 1439,
      "IL": 1440,
      "mind": 1441,
      "nor": 1442,
      "enced": 1443,
      "idation": 1444,
      "note": 1445,
      "aud": 1446,
      "vious": 1447,
      "therein": 1448,
      "attend": 1449,
      "That": 1450,
      "bunal": 1451,
      "ile": 1452,
      "ves": 1453,
      "war": 1454,
      "thin": 1455,
      "according": 1456,
      "obje": 1457,
      "ys": 1458,
      "isition": 1459,
      "ateg": 1460,
      "princ": 1461,
      "examined": 1462,
      "03": 1463,
      "ot": 1464,
      "sen": 1465,
      "causing": 1466,
      "loss": 1467,
      "49": 1468,
      "family": 1469,
      "second": 1470,
      "wife": 1471,
      "pra": 1472,
      "considered": 1473,
      "contin": 1474,
      "construction": 1475,
      "THE": 1476,
      "Constitution": 1477,
      "39": 1478,
      "AR": 1479,
      "2010": 1480,
      "tried": 1481,
      "medical": 1482,
      "Order": 1483,
      "Petition": 1484,
      "At": 1485,
      "CT": 1486,
      "along": 1487,
      "prepar": 1488,
      "rities": 1489,
      "Chap": 1490,
      "prevent": 1491,
      "injury": 1492,
      "Au": 1493,
      "Lt": 1494,
      "bod": 1495,
      "citiz": 1496,
      "vers": 1497,
      "olunt": 1498,
      "According": 1499,
      "observed": 1500,
      "hon": 1501,
      "cons": 1502,
      "aff": 1503,
      "feit": 1504,
      "causes": 1505,
      "iii": 1506,
      "Chapter": 1507,
      "Ltd": 1508,
      "Cla": 1509,
      "categ": 1510,
      "result": 1511,
      "ight": 1512,
      "satisf": 1513,
      "Le": 1514,
      "atta": 1515,
      "andid": 1516,
      "delay": 1517,
      "incident": 1518,
      "breach": 1519,
      "member": 1520,
      "different": 1521,
      "Ag": 1522,
      "essee": 1523,
      "prescri": 1524,
      "securities": 1525,
      "Judicial": 1526,
      "called": 1527,
      "Par": 1528,
      "eve": 1529,
      "suf": 1530,
      "conclus": 1531,
      "except": 1532,
      "umar": 1533,
      "Article": 1534,
      "powers": 1535,
      "Tribunal": 1536,
      "deemed": 1537,
      ")(": 1538,
      "kh": 1539,
      "ency": 1540,
      "ast": 1541,
      "promis": 1542,
      "col": 1543,
      "pending": 1544,
      "work": 1545,
      "local": 1546,
      "bor": 1547,
      "bound": 1548,
      "candid": 1549,
      "contained": 1550,
      "endant": 1551,
      "posal": 1552,
      "specific": 1553,
      "title": 1554,
      "thousand": 1555,
      "six": 1556,
      "fully": 1557,
      "justice": 1558,
      "appropriate": 1559,
      "Ma": 1560,
      "ee": 1561,
      "lic": 1562,
      "accord": 1563,
      "ocate": 1564,
      "giving": 1565,
      "fix": 1566,
      "received": 1567,
      "lat": 1568,
      "eng": 1569,
      "chall": 1570,
      "supra": 1571,
      "exceed": 1572,
      "purch": 1573,
      "appearing": 1574,
      "relating": 1575,
      "petitioner": 1576,
      "believe": 1577,
      "suffer": 1578,
      "AS": 1579,
      "CE": 1580,
      "Mo": 1581,
      "aw": 1582,
      "already": 1583,
      "informant": 1584,
      "46": 1585,
      "previous": 1586,
      "caused": 1587,
      "knowled": 1588,
      "arrested": 1589,
      "cognizance": 1590,
      "assess": 1591,
      "2016": 1592,
      "certif": 1593,
      "Ors": 1594,
      "revision": 1595,
      "attempt": 1596,
      "copy": 1597,
      "Col": 1598,
      "acce": 1599,
      "tra": 1600,
      "final": 1601,
      "special": 1602,
      "standing": 1603,
      ".)": 1604,
      "Div": 1605,
      "Kumar": 1606,
      "dou": 1607,
      "jail": 1608,
      "agr": 1609,
      "tail": 1610,
      "cost": 1611,
      "solidation": 1612,
      "cru": 1613,
      "submission": 1614,
      "ower": 1615,
      "doing": 1616,
      "uses": 1617,
      "bal": 1618,
      "rules": 1619,
      "ors": 1620,
      "forward": 1621,
      "hearing": 1622,
      "abs": 1623,
      "Nos": 1624,
      "2009": 1625,
      "CO": 1626,
      "ry": 1627,
      "theft": 1628,
      "prove": 1629,
      "noted": 1630,
      "appeals": 1631,
      "filing": 1632,
      "default": 1633,
      "number": 1634,
      "oluntarily": 1635,
      "94": 1636,
      "Fir": 1637,
      "ana": 1638,
      "ception": 1639,
      "susp": 1640,
      "First": 1641,
      "entire": 1642,
      "stage": 1643,
      "ices": 1644,
      "ries": 1645,
      "ural": 1646,
      "accept": 1647,
      "prof": 1648,
      "196": 1649,
      "2011": 1650,
      "tee": 1651,
      "medi": 1652,
      "Commit": 1653,
      "defendant": 1654,
      "belong": 1655,
      "APPE": 1656,
      "accordance": 1657,
      "Ass": 1658,
      "Ta": 1659,
      "itself": 1660,
      "aph": 1661,
      "appoint": 1662,
      "duty": 1663,
      "ively": 1664,
      "keep": 1665,
      "firm": 1666,
      "father": 1667,
      "brought": 1668,
      "mortgage": 1669,
      "ked": 1670,
      "kar": 1671,
      "since": 1672,
      "err": 1673,
      "stat": 1674,
      "stru": 1675,
      "lier": 1676,
      "viol": 1677,
      "duly": 1678,
      "side": 1679,
      "direction": 1680,
      "Arising": 1681,
      "pa": 1682,
      "ational": 1683,
      "compet": 1684,
      "furn": 1685,
      "sett": 1686,
      "claimed": 1687,
      "Accused": 1688,
      "thinks": 1689,
      "citizen": 1690,
      "Mr": 1691,
      "cred": 1692,
      "civil": 1693,
      "rect": 1694,
      "ctim": 1695,
      "determin": 1696,
      "anything": 1697,
      "amp": 1698,
      "clo": 1699,
      "preferred": 1700,
      "secutor": 1701,
      "Appellate": 1702,
      "tificer": 1703,
      "SU": 1704,
      "ang": 1705,
      "search": 1706,
      "taining": 1707,
      "Procedure": 1708,
      "En": 1709,
      "Spe": 1710,
      "back": 1711,
      "liance": 1712,
      "intending": 1713,
      "jected": 1714,
      "Artificer": 1715,
      "Thus": 1716,
      "below": 1717,
      "Division": 1718,
      "CH": 1719,
      "ama": 1720,
      "argu": 1721,
      "station": 1722,
      "provid": 1723,
      "new": 1724,
      "Single": 1725,
      "Reg": 1726,
      "namely": 1727,
      "words": 1728,
      "far": 1729,
      "four": 1730,
      "high": 1731,
      "head": 1732,
      "heard": 1733,
      "victim": 1734,
      "open": 1735,
      "Indian": 1736,
      "advocate": 1737,
      "benefit": 1738,
      "those": 1739,
      "ings": 1740,
      "perform": 1741,
      "pract": 1742,
      "counter": 1743,
      "ING": 1744,
      "Add": 1745,
      "ordinate": 1746,
      "body": 1747,
      "accepted": 1748,
      "FOR": 1749,
      "IV": 1750,
      "say": 1751,
      "vis": 1752,
      "vir": 1753,
      "ata": 1754,
      "lection": 1755,
      "conf": 1756,
      "notification": 1757,
      "admitted": 1758,
      "dishon": 1759,
      "includes": 1760,
      "Committee": 1761,
      "Jail": 1762,
      "gra": 1763,
      "lar": 1764,
      "remo": 1765,
      "proof": 1766,
      "estly": 1767,
      "produce": 1768,
      "supp": 1769,
      "MP": 1770,
      "Raj": 1771,
      "iti": 1772,
      "unction": 1773,
      "ress": 1774,
      "acquisition": 1775,
      "continu": 1776,
      "candidates": 1777,
      "suc": 1778,
      "heet": 1779,
      "vel": 1780,
      "neg": 1781,
      "examine": 1782,
      "bly": 1783,
      "ck": 1784,
      "var": 1785,
      "vate": 1786,
      "demand": 1787,
      "detail": 1788,
      "acquired": 1789,
      "placed": 1790,
      "publ": 1791,
      "judicial": 1792,
      "sentenced": 1793,
      "Prosecutor": 1794,
      "defence": 1795,
      "lector": 1796,
      "support": 1797,
      "competent": 1798,
      "Cor": 1799,
      "Dire": 1800,
      "fall": 1801,
      "long": 1802,
      "threat": 1803,
      "sem": 1804,
      "earlier": 1805,
      "presence": 1806,
      "obtained": 1807,
      "2014": 1808,
      "faith": 1809,
      "seeking": 1810,
      "render": 1811,
      "grieved": 1812,
      "satisfied": 1813,
      "challen": 1814,
      "doubt": 1815,
      "Special": 1816,
      "uch": 1817,
      "because": 1818,
      "sever": 1819,
      "clud": 1820,
      "Sections": 1821,
      "ized": 1822,
      "ituted": 1823,
      "appreh": 1824,
      "Clause": 1825,
      "02": 1826,
      "IA": 1827,
      "imposed": 1828,
      "immedi": 1829,
      "makes": 1830,
      "polic": 1831,
      "tract": 1832,
      "area": 1833,
      "partment": 1834,
      "Execu": 1835,
      "reference": 1836,
      "testimon": 1837,
      "59": 1838,
      "Be": 1839,
      "To": 1840,
      "mere": 1841,
      "enance": 1842,
      "appointed": 1843,
      "discharge": 1844,
      "others": 1845,
      "intenance": 1846,
      "instru": 1847,
      "committing": 1848,
      "return": 1849,
      "conclusion": 1850,
      "policy": 1851,
      "Mad": 1852,
      "ie": 1853,
      "”.": 1854,
      "orous": 1855,
      "chan": 1856,
      "goods": 1857,
      "regarding": 1858,
      "until": 1859,
      "grievous": 1860,
      "joint": 1861,
      "Af": 1862,
      "Writ": 1863,
      "sc": 1864,
      "san": 1865,
      "sound": 1866,
      "arbitr": 1867,
      "ceal": 1868,
      "bey": 1869,
      "maintenance": 1870,
      "share": 1871,
      "released": 1872,
      "rights": 1873,
      "value": 1874,
      "brother": 1875,
      "signed": 1876,
      "defined": 1877,
      "subsequent": 1878,
      "fixed": 1879,
      "knowledge": 1880,
      "50": 1881,
      "Kh": 1882,
      "sign": 1883,
      "relied": 1884,
      "ided": 1885,
      "idav": 1886,
      "amed": 1887,
      "dist": 1888,
      "answer": 1889,
      "Prad": 1890,
      "curr": 1891,
      "Director": 1892,
      "Here": 1893,
      "Power": 1894,
      "bid": 1895,
      "general": 1896,
      "recover": 1897,
      "rol": 1898,
      "quash": 1899,
      "legis": 1900,
      "spital": 1901,
      "deliver": 1902,
      "marriage": 1903,
      "prescribed": 1904,
      "After": 1905,
      "Kar": 1906,
      "ible": 1907,
      "sy": 1908,
      "oral": 1909,
      "intended": 1910,
      "available": 1911,
      "III": 1912,
      "meaning": 1913,
      "establish": 1914,
      "existence": 1915,
      "33": 1916,
      "Bi": 1917,
      "Fur": 1918,
      "hol": 1919,
      "kill": 1920,
      "treat": 1921,
      "voluntarily": 1922,
      "conne": 1923,
      "prim": 1924,
      "subordinate": 1925,
      "div": 1926,
      "extent": 1927,
      "invol": 1928,
      "poration": 1929,
      "Illustrations": 1930,
      "consist": 1931,
      "Collector": 1932,
      "agraph": 1933,
      "Pradesh": 1934,
      "Pun": 1935,
      "dama": 1936,
      "ey": 1937,
      "ia": 1938,
      "mal": 1939,
      "ning": 1940,
      "plain": 1941,
      "100": 1942,
      "need": 1943,
      "considering": 1944,
      "ipal": 1945,
      "convict": 1946,
      "Hary": 1947,
      "based": 1948,
      "carr": 1949,
      "ude": 1950,
      "resh": 1951,
      "sell": 1952,
      "2012": 1953,
      "release": 1954,
      "file": 1955,
      "believ": 1956,
      "awarded": 1957,
      "consequence": 1958,
      "Further": 1959,
      "Haryana": 1960,
      "ace": 1961,
      "lit": 1962,
      "ures": 1963,
      "che": 1964,
      "chief": 1965,
      "ples": 1966,
      "rule": 1967,
      "hereby": 1968,
      "owner": 1969,
      "Del": 1970,
      "sheet": 1971,
      "Union": 1972,
      "acquittal": 1973,
      "credit": 1974,
      "ires": 1975,
      "vable": 1976,
      "towards": 1977,
      "illegal": 1978,
      "conceal": 1979,
      "cus": 1980,
      "shown": 1981,
      "lies": 1982,
      "resident": 1983,
      "soci": 1984,
      "puted": 1985,
      "country": 1986,
      "known": 1987,
      "declared": 1988,
      "CR": 1989,
      "away": 1990,
      "kha": 1991,
      "ph": 1992,
      "situ": 1993,
      "tre": 1994,
      "tres": 1995,
      "till": 1996,
      "ension": 1997,
      "ences": 1998,
      "took": 1999,
      "stay": 2000,
      "rig": 2001,
      "ify": 2002,
      "statements": 2003,
      "movable": 2004,
      "applicable": 2005,
      "senior": 2006,
      "affidav": 2007,
      "Additional": 2008,
      "beyond": 2009,
      "cing": 2010,
      "care": 2011,
      "sought": 2012,
      "ested": 2013,
      "procedure": 2014,
      "Courts": 2015,
      "assessee": 2016,
      "2018": 2017,
      "design": 2018,
      "Rekha": 2019,
      "recei": 2020,
      "failed": 2021,
      "Illustration": 2022,
      "exceeding": 2023,
      "Lim": 2024,
      "rate": 2025,
      "stamp": 2026,
      "pert": 2027,
      "ably": 2028,
      "adver": 2029,
      "acter": 2030,
      "submit": 2031,
      "ference": 2032,
      "ocation": 2033,
      "authorities": 2034,
      "hibit": 2035,
      "expir": 2036,
      "jab": 2037,
      "lan": 2038,
      "vices": 2039,
      "toge": 2040,
      "leave": 2041,
      "ages": 2042,
      "tru": 2043,
      "lled": 2044,
      "qual": 2045,
      "raised": 2046,
      "aving": 2047,
      "prior": 2048,
      "refund": 2049,
      "Punjab": 2050,
      "together": 2051,
      "phas": 2052,
      "anch": 2053,
      "ale": 2054,
      "lected": 2055,
      "ilar": 2056,
      "common": 2057,
      "admin": 2058,
      "lie": 2059,
      "light": 2060,
      "private": 2061,
      "plead": 2062,
      "correct": 2063,
      "employee": 2064,
      "chargesheet": 2065,
      "certificate": 2066,
      ",—": 2067,
      "bar": 2068,
      "isting": 2069,
      "chn": 2070,
      "ager": 2071,
      "reser": 2072,
      "intend": 2073,
      "While": 2074,
      "character": 2075,
      "abetted": 2076,
      "Per": 2077,
      "She": 2078,
      "Za": 2079,
      "air": 2080,
      "len": 2081,
      "vill": 2082,
      "edu": 2083,
      "alter": 2084,
      "separ": 2085,
      "offer": 2086,
      "Comp": 2087,
      "hoor": 2088,
      "hereinafter": 2089,
      "fraud": 2090,
      "limitation": 2091,
      "findings": 2092,
      "Executive": 2093,
      "trespass": 2094,
      "Zahoor": 2095,
      "near": 2096,
      "assem": 2097,
      "depend": 2098,
      "import": 2099,
      "cul": 2100,
      "office": 2101,
      "legally": 2102,
      "2006": 2103,
      "Commissioner": 2104,
      "prepared": 2105,
      "Delhi": 2106,
      "40": 2107,
      "ST": 2108,
      "mother": 2109,
      "initi": 2110,
      "reed": 2111,
      "icated": 2112,
      "paragraph": 2113,
      "partly": 2114,
      "..............................................,": 2115,
      "Consolidation": 2116,
      "possess": 2117,
      "clearly": 2118,
      "holding": 2119,
      "balance": 2120,
      "dishonestly": 2121,
      "60": 2122,
      "Ab": 2123,
      "NO": 2124,
      "XX": 2125,
      "cance": 2126,
      "mber": 2127,
      "ants": 2128,
      "lying": 2129,
      "knows": 2130,
      "natural": 2131,
      "constit": 2132,
      "follows": 2133,
      "grounds": 2134,
      "error": 2135,
      "provides": 2136,
      "various": 2137,
      "74": 2138,
      "91": 2139,
      "hum": 2140,
      "much": 2141,
      "anger": 2142,
      "mental": 2143,
      "See": 2144,
      "affect": 2145,
      "mark": 2146,
      "stolen": 2147,
      "portion": 2148,
      "pension": 2149,
      "Shri": 2150,
      "cluded": 2151,
      "Sched": 2152,
      "TER": 2153,
      "hab": 2154,
      "ivers": 2155,
      "ator": 2156,
      "atory": 2157,
      "ential": 2158,
      "purport": 2159,
      "Chand": 2160,
      "commence": 2161,
      "fair": 2162,
      "allegations": 2163,
      "addition": 2164,
      "substant": 2165,
      "absence": 2166,
      "neglig": 2167,
      "affidavit": 2168,
      "Bo": 2169,
      "ED": 2170,
      "General": 2171,
      "RO": 2172,
      "thir": 2173,
      "real": 2174,
      "2020": 2175,
      "residing": 2176,
      "acy": 2177,
      "disposed": 2178,
      "contention": 2179,
      "guage": 2180,
      "deposited": 2181,
      "approach": 2182,
      "Respondents": 2183,
      "substance": 2184,
      "established": 2185,
      "simple": 2186,
      "holder": 2187,
      "But": 2188,
      "ises": 2189,
      "remission": 2190,
      "permission": 2191,
      "laid": 2192,
      "lakh": 2193,
      "Inv": 2194,
      "istration": 2195,
      "possible": 2196,
      "agement": 2197,
      "express": 2198,
      "carri": 2199,
      "communication": 2200,
      "sanction": 2201,
      "CIV": 2202,
      "Sm": 2203,
      "Sig": 2204,
      "Usha": 2205,
      "vation": 2206,
      "rejected": 2207,
      "nothing": 2208,
      "omic": 2209,
      "confin": 2210,
      "withdraw": 2211,
      "amation": 2212,
      "acity": 2213,
      "true": 2214,
      "district": 2215,
      "meet": 2216,
      "iple": 2217,
      "contrary": 2218,
      "entered": 2219,
      "Author": 2220,
      "chnical": 2221,
      "assembly": 2222,
      "CIVIL": 2223,
      "Coun": 2224,
      "Dated": 2225,
      "Sim": 2226,
      "inary": 2227,
      "dead": 2228,
      "ift": 2229,
      "acts": 2230,
      "discre": 2231,
      "empower": 2232,
      "pursu": 2233,
      "courts": 2234,
      "Sanju": 2235,
      "OND": 2236,
      "broken": 2237,
      "build": 2238,
      "category": 2239,
      "settled": 2240,
      "Signature": 2241,
      "99": 2242,
      "Lal": 2243,
      "cident": 2244,
      "fire": 2245,
      "however": 2246,
      "ka": 2247,
      "line": 2248,
      "ull": 2249,
      "inj": 2250,
      "ission": 2251,
      "omission": 2252,
      "consp": 2253,
      "disputed": 2254,
      "records": 2255,
      "questions": 2256,
      "aka": 2257,
      "revised": 2258,
      "intentionally": 2259,
      "APTER": 2260,
      "penal": 2261,
      "objection": 2262,
      "attach": 2263,
      "CHAPTER": 2264,
      "several": 2265,
      "language": 2266,
      "phasis": 2267,
      "village": 2268,
      "98": 2269,
      "Bid": 2270,
      "EN": 2271,
      "Every": 2272,
      "gen": 2273,
      "les": 2274,
      "wat": 2275,
      "arri": 2276,
      "aggrieved": 2277,
      "endor": 2278,
      "earned": 2279,
      "get": 2280,
      "judgments": 2281,
      "nataka": 2282,
      "valu": 2283,
      "gery": 2284,
      "ATE": 2285,
      "immediately": 2286,
      "Karnataka": 2287,
      "Smt": 2288,
      "1st": 2289,
      "Ah": 2290,
      "LA": 2291,
      "TO": 2292,
      "reli": 2293,
      "rob": 2294,
      "peace": 2295,
      "prob": 2296,
      "comes": 2297,
      "trust": 2298,
      "igation": 2299,
      "2013": 2300,
      "firmed": 2301,
      "exercised": 2302,
      "objector": 2303,
      "Manager": 2304,
      "complete": 2305,
      "furnish": 2306,
      "counterfeit": 2307,
      "treatment": 2308,
      "rigorous": 2309,
      "67": 2310,
      "68": 2311,
      "Ser": 2312,
      "cies": 2313,
      "nex": 2314,
      "vo": 2315,
      "inf": 2316,
      "ancial": 2317,
      "stain": 2318,
      "territ": 2319,
      "Income": 2320,
      "interpre": 2321,
      "gives": 2322,
      "appearance": 2323,
      "hospital": 2324,
      "transfer": 2325,
      "expression": 2326,
      "Artificers": 2327,
      "eye": 2328,
      "58": 2329,
      ":—": 2330,
      "RA": 2331,
      "Vi": 2332,
      "fill": 2333,
      "reve": 2334,
      "adop": 2335,
      "auction": 2336,
      "Not": 2337,
      "thereafter": 2338,
      "instant": 2339,
      "assault": 2340,
      "rain": 2341,
      "compliance": 2342,
      "Report": 2343,
      "Whenever": 2344,
      "curred": 2345,
      "AND": 2346,
      "attempts": 2347,
      "Assist": 2348,
      "Tax": 2349,
      "velop": 2350,
      "reveal": 2351,
      "gift": 2352,
      "ially": 2353,
      "rank": 2354,
      "reven": 2355,
      "lement": 2356,
      "unsound": 2357,
      "confine": 2358,
      "exem": 2359,
      "compe": 2360,
      "liber": 2361,
      "official": 2362,
      "acting": 2363,
      "casion": 2364,
      "missible": 2365,
      "kept": 2366,
      "redu": 2367,
      "occasion": 2368,
      "whereas": 2369,
      "restor": 2370,
      "1996": 2371,
      "dying": 2372,
      "applicant": 2373,
      "supplied": 2374,
      "Khata": 2375,
      "legisl": 2376,
      "human": 2377,
      "Authority": 2378,
      "empowered": 2379,
      "By": 2380,
      "Evidence": 2381,
      "UR": 2382,
      "dedu": 2383,
      "list": 2384,
      "uary": 2385,
      "arising": 2386,
      "exclus": 2387,
      "accident": 2388,
      "endra": 2389,
      "afe": 2390,
      "triable": 2391,
      "officers": 2392,
      "company": 2393,
      "Judges": 2394,
      "authorised": 2395,
      "informed": 2396,
      "minor": 2397,
      "……………………": 2398,
      "attendance": 2399,
      "struct": 2400,
      "Assistant": 2401,
      "41": 2402,
      "65": 2403,
      "Dr": 2404,
      "Khan": 2405,
      "nd": 2406,
      "safe": 2407,
      "lead": 2408,
      "str": 2409,
      "withstanding": 2410,
      "takes": 2411,
      "sold": 2412,
      "Nothing": 2413,
      "ives": 2414,
      "close": 2415,
      "Arbitr": 2416,
      "going": 2417,
      "matters": 2418,
      "conducted": 2419,
      "deeds": 2420,
      "Eng": 2421,
      "revenue": 2422,
      "Other": 2423,
      "cent": 2424,
      "seen": 2425,
      "left": 2426,
      "proposal": 2427,
      "respon": 2428,
      "endment": 2429,
      "thereupon": 2430,
      "appreci": 2431,
      "paper": 2432,
      "citizenship": 2433,
      "merely": 2434,
      "receipt": 2435,
      "Company": 2436,
      "Har": 2437,
      "Ne": 2438,
      "bility": 2439,
      "lla": 2440,
      "mod": 2441,
      "pting": 2442,
      "forth": 2443,
      "unlawful": 2444,
      "appellate": 2445,
      "pray": 2446,
      "disposal": 2447,
      "considers": 2448,
      "control": 2449,
      "harm": 2450,
      "additional": 2451,
      "Appellants": 2452,
      "objections": 2453,
      "categor": 2454,
      "FORM": 2455,
      "challenge": 2456,
      "testimony": 2457,
      "57": 2458,
      "ICT": 2459,
      "Learned": 2460,
      "May": 2461,
      "WH": 2462,
      "cle": 2463,
      "inju": 2464,
      "bearing": 2465,
      "contain": 2466,
      "approv": 2467,
      "aged": 2468,
      "mity": 2469,
      "usal": 2470,
      "fected": 2471,
      "regular": 2472,
      "sumption": 2473,
      "contents": 2474,
      "2001": 2475,
      "got": 2476,
      "justified": 2477,
      "surance": 2478,
      "similar": 2479,
      "belonging": 2480,
      "success": 2481,
      "commencement": 2482,
      "Investig": 2483,
      "70": 2484,
      "DR": 2485,
      "bur": 2486,
      "full": 2487,
      "next": 2488,
      "recomm": 2489,
      "art": 2490,
      "aul": 2491,
      "ordered": 2492,
      "decided": 2493,
      "whole": 2494,
      "recording": 2495,
      "wherein": 2496,
      "bery": 2497,
      "contended": 2498,
      "investigating": 2499,
      "ported": 2500,
      "transaction": 2501,
      "ERE": 2502,
      "————": 2503,
      "costs": 2504,
      "damage": 2505,
      "carrying": 2506,
      "building": 2507,
      "Bidder": 2508,
      "approval": 2509,
      "Hon": 2510,
      "ID": 2511,
      "gust": 2512,
      "ms": 2513,
      "asked": 2514,
      "seal": 2515,
      "unity": 2516,
      "icit": 2517,
      "resid": 2518,
      "activ": 2519,
      "Seal": 2520,
      "prisoner": 2521,
      "meas": 2522,
      "event": 2523,
      "context": 2524,
      "payable": 2525,
      "motive": 2526,
      "enses": 2527,
      "include": 2528,
      "August": 2529,
      "statut": 2530,
      "fraudul": 2531,
      "discretion": 2532,
      "66": 2533,
      "NC": 2534,
      "Pre": 2535,
      "fresh": 2536,
      "gain": 2537,
      "hya": 2538,
      "iples": 2539,
      "kind": 2540,
      "tt": 2541,
      "ually": 2542,
      "stri": 2543,
      "ick": 2544,
      "permitted": 2545,
      "perintend": 2546,
      "ours": 2547,
      "ember": 2548,
      "ket": 2549,
      "instituted": 2550,
      "book": 2551,
      "302": 2552,
      "plea": 2553,
      "deposition": 2554,
      "bring": 2555,
      "ATION": 2556,
      "signature": 2557,
      "Agreement": 2558,
      "promise": 2559,
      "purchas": 2560,
      "confession": 2561,
      "WHERE": 2562,
      "Bh": 2563,
      "aking": 2564,
      "bind": 2565,
      "btor": 2566,
      "gan": 2567,
      "iary": 2568,
      "inqu": 2569,
      "detained": 2570,
      "why": 2571,
      "personal": 2572,
      "They": 2573,
      "plication": 2574,
      "using": 2575,
      "judic": 2576,
      "spect": 2577,
      "issues": 2578,
      "decisions": 2579,
      "Force": 2580,
      "address": 2581,
      "dismissal": 2582,
      "facil": 2583,
      "facie": 2584,
      "members": 2585,
      "APPEAL": 2586,
      "Madhya": 2587,
      "Ahmed": 2588,
      "WHEREAS": 2589,
      "ES": 2590,
      "Whe": 2591,
      "tention": 2592,
      "...": 2593,
      "aspect": 2594,
      "exception": 2595,
      "adi": 2596,
      "cogn": 2597,
      "tection": 2598,
      "2002": 2599,
      "guar": 2600,
      "Such": 2601,
      "bitral": 2602,
      "materials": 2603,
      "denied": 2604,
      "accordingly": 2605,
      "principles": 2606,
      "Corporation": 2607,
      "change": 2608,
      "Bihar": 2609,
      "penalty": 2610,
      "genu": 2611,
      "Whether": 2612,
      "dr": 2613,
      "dul": 2614,
      "ule": 2615,
      "ins": 2616,
      "reach": 2617,
      "ically": 2618,
      "explain": 2619,
      "amended": 2620,
      "rape": 2621,
      "respective": 2622,
      "reads": 2623,
      "1955": 2624,
      "Accordingly": 2625,
      "scen": 2626,
      "Abdul": 2627,
      "conspir": 2628,
      "injuries": 2629,
      "Hence": 2630,
      "March": 2631,
      "TA": 2632,
      "Te": 2633,
      "pat": 2634,
      "onoun": 2635,
      "orand": 2636,
      "ensure": 2637,
      "rever": 2638,
      "sustain": 2639,
      "forfeit": 2640,
      "pronoun": 2641,
      "acted": 2642,
      "Second": 2643,
      "decide": 2644,
      "PW2": 2645,
      "tender": 2646,
      "framed": 2647,
      "accounts": 2648,
      "capacity": 2649,
      "APPEL": 2650,
      "violation": 2651,
      "division": 2652,
      "treated": 2653,
      "purporting": 2654,
      "injunction": 2655,
      "attachment": 2656,
      "confinement": 2657,
      "orandum": 2658,
      "319": 2659,
      "All": 2660,
      "Apr": 2661,
      "Ban": 2662,
      "CPC": 2663,
      "DE": 2664,
      "az": 2665,
      "mi": 2666,
      "tified": 2667,
      "total": 2668,
      "ars": 2669,
      "enty": 2670,
      "row": 2671,
      "cup": 2672,
      "outside": 2673,
      "wel": 2674,
      "provocation": 2675,
      "serious": 2676,
      "opport": 2677,
      "lands": 2678,
      "execute": 2679,
      "exercising": 2680,
      "request": 2681,
      "stands": 2682,
      "dealer": 2683,
      "Leave": 2684,
      "determined": 2685,
      "details": 2686,
      "April": 2687,
      "Nand": 2688,
      "Sen": 2689,
      "ead": 2690,
      "last": 2691,
      "”,": 2692,
      "anav": 2693,
      "oup": 2694,
      "sul": 2695,
      "sume": 2696,
      "notes": 2697,
      "2000": 2698,
      "soon": 2699,
      "institution": 2700,
      "interim": 2701,
      "occup": 2702,
      "2008": 2703,
      "marks": 2704,
      "faction": 2705,
      "transferred": 2706,
      "valid": 2707,
      "abetment": 2708,
      "ordinarily": 2709,
      "expenses": 2710,
      "principle": 2711,
      "submissions": 2712,
      "connection": 2713,
      "involved": 2714,
      "phys": 2715,
      "carried": 2716,
      "endorse": 2717,
      "relief": 2718,
      "Am": 2719,
      "BL": 2720,
      "Even": 2721,
      "Hindu": 2722,
      "Line": 2723,
      "Om": 2724,
      "cret": 2725,
      "homic": 2726,
      "might": 2727,
      "og": 2728,
      "uk": 2729,
      "vac": 2730,
      "anal": 2731,
      "sex": 2732,
      "stating": 2733,
      "imp": 2734,
      "confirm": 2735,
      "provide": 2736,
      "aco": 2737,
      "Magistrates": 2738,
      "services": 2739,
      "quiring": 2740,
      "Exhibit": 2741,
      "161": 2742,
      "173": 2743,
      "claims": 2744,
      "OnLine": 2745,
      "ways": 2746,
      "renew": 2747,
      "showing": 2748,
      "Rupees": 2749,
      "married": 2750,
      "confined": 2751,
      "Engine": 2752,
      "statutory": 2753,
      "opportunity": 2754,
      "86": 2755,
      "Ju": 2756,
      "National": 2757,
      "PF": 2758,
      "Reven": 2759,
      "cession": 2760,
      "free": 2761,
      "gment": 2762,
      "lin": 2763,
      "oting": 2764,
      "sory": 2765,
      "tem": 2766,
      "atives": 2767,
      "ari": 2768,
      "determ": 2769,
      "extract": 2770,
      "ends": 2771,
      "parents": 2772,
      "prelim": 2773,
      "served": 2774,
      "again": 2775,
      "2003": 2776,
      "stood": 2777,
      "3291": 2778,
      "applied": 2779,
      "production": 2780,
      "directing": 2781,
      "requires": 2782,
      "handwriting": 2783,
      "employed": 2784,
      "satisfaction": 2785,
      "receiving": 2786,
      "482": 2787,
      "later": 2788,
      "instrument": 2789,
      "CRPF": 2790,
      "Limited": 2791,
      "constitute": 2792,
      "Revenue": 2793,
      "determine": 2794,
      "preliminary": 2795,
      "ade": 2796,
      "danger": 2797,
      "daco": 2798,
      "ker": 2799,
      "na": 2800,
      "pp": 2801,
      "pite": 2802,
      "sister": 2803,
      "yed": 2804,
      "become": 2805,
      "seiz": 2806,
      "department": 2807,
      "agreed": 2808,
      "ami": 2809,
      "financial": 2810,
      "posing": 2811,
      "neither": 2812,
      "judge": 2813,
      "Prosecution": 2814,
      "certified": 2815,
      "2004": 2816,
      "authorise": 2817,
      "executing": 2818,
      "Department": 2819,
      "ercial": 2820,
      "finds": 2821,
      "plot": 2822,
      "3294": 2823,
      "IND": 2824,
      "hib": 2825,
      "Pranav": 2826,
      "children": 2827,
      "passing": 2828,
      "lawfully": 2829,
      "capital": 2830,
      "operation": 2831,
      "subsequently": 2832,
      "preparation": 2833,
      "born": 2834,
      "keeping": 2835,
      "published": 2836,
      "prima": 2837,
      "robbery": 2838,
      "scene": 2839,
      ");": 2840,
      ".-": 2841,
      "64": 2842,
      "97": 2843,
      "Ash": 2844,
      "Mis": 2845,
      "SION": 2846,
      "Tr": 2847,
      "bir": 2848,
      "gone": 2849,
      "lu": 2850,
      "never": 2851,
      "pal": 2852,
      "––": 2853,
      "anwar": 2854,
      "review": 2855,
      "ali": 2856,
      "icates": 2857,
      "expert": 2858,
      "204": 2859,
      "discus": 2860,
      "uled": 2861,
      "instance": 2862,
      "puty": 2863,
      "avail": 2864,
      "management": 2865,
      "motion": 2866,
      "setting": 2867,
      "Deputy": 2868,
      "respectively": 2869,
      "Thereafter": 2870,
      "aksh": 2871,
      "surety": 2872,
      "collected": 2873,
      "trade": 2874,
      "Vij": 2875,
      "conspiracy": 2876,
      "Omkar": 2877,
      ":-": 2878,
      "BI": 2879,
      "FIL": 2880,
      "Having": 2881,
      "MA": 2882,
      "bai": 2883,
      "fear": 2884,
      "ging": 2885,
      "nam": 2886,
      "ring": 2887,
      "site": 2888,
      "saw": 2889,
      "independ": 2890,
      "isted": 2891,
      "repe": 2892,
      "debt": 2893,
      "icult": 2894,
      "permit": 2895,
      "ific": 2896,
      "died": 2897,
      "preme": 2898,
      "106": 2899,
      "sumer": 2900,
      "Annex": 2901,
      "Supreme": 2902,
      "porate": 2903,
      "directly": 2904,
      "1975": 2905,
      "dealing": 2906,
      "completed": 2907,
      "merit": 2908,
      "merits": 2909,
      "liberty": 2910,
      "Arbitration": 2911,
      "Senior": 2912,
      "Em": 2913,
      "Oc": 2914,
      "PL": 2915,
      "Since": 2916,
      "dig": 2917,
      "fere": 2918,
      "home": 2919,
      "ience": 2920,
      "lessee": 2921,
      "your": 2922,
      "relig": 2923,
      "states": 2924,
      "unic": 2925,
      "existing": 2926,
      "liability": 2927,
      "divid": 2928,
      "posite": 2929,
      "Station": 2930,
      "obtain": 2931,
      "directions": 2932,
      "Superintend": 2933,
      "oked": 2934,
      "dealt": 2935,
      "delivery": 2936,
      "community": 2937,
      "relationship": 2938,
      "COUR": 2939,
      "removal": 2940,
      "delivered": 2941,
      "lieu": 2942,
      "offered": 2943,
      "possessed": 2944,
      "territory": 2945,
      "llah": 2946,
      "unicipal": 2947,
      "COURT": 2948,
      "120": 2949,
      "225": 2950,
      "Bom": 2951,
      "Gha": 2952,
      "Of": 2953,
      "RIS": 2954,
      "jour": 2955,
      "rd": 2956,
      "run": 2957,
      "went": 2958,
      "xim": 2959,
      "’.": 2960,
      "once": 2961,
      "tober": 2962,
      "ese": 2963,
      "cho": 2964,
      "deposed": 2965,
      "develop": 2966,
      "idn": 2967,
      "abdu": 2968,
      "essential": 2969,
      "subs": 2970,
      "disclose": 2971,
      "clamation": 2972,
      "thereto": 2973,
      "partition": 2974,
      "sibility": 2975,
      "proceeds": 2976,
      "issuing": 2977,
      "contem": 2978,
      "ipul": 2979,
      "relative": 2980,
      "face": 2981,
      "loan": 2982,
      "/-.": 2983,
      "requirement": 2984,
      "promised": 2985,
      "purchase": 2986,
      "cruel": 2987,
      "closed": 2988,
      "virt": 2989,
      "jointly": 2990,
      "iversity": 2991,
      "FILING": 2992,
      "October": 2993,
      "53": 2994,
      "77": 2995,
      "Ano": 2996,
      "HA": 2997,
      "Jun": 2998,
      "Nare": 2999,
      "bay": 3000,
      "dau": 3001,
      "ety": 3002,
      "hence": 3003,
      "rent": 3004,
      "rimon": 3005,
      "alth": 3006,
      "armed": 3007,
      "article": 3008,
      "selection": 3009,
      "suret": 3010,
      "poison": 3011,
      "admission": 3012,
      "Inform": 3013,
      "ived": 3014,
      "ghter": 3015,
      "proving": 3016,
      "occurr": 3017,
      "harass": 3018,
      "most": 3019,
      "commercial": 3020,
      "petitions": 3021,
      "putation": 3022,
      "These": 3023,
      "contradi": 3024,
      "maintain": 3025,
      "limits": 3026,
      "acquitted": 3027,
      "Moh": 3028,
      "assessment": 3029,
      "appointment": 3030,
      "forthwith": 3031,
      "recommend": 3032,
      "endorsement": 3033,
      "Bombay": 3034,
      "Naresh": 3035,
      "daughter": 3036,
      "sureties": 3037,
      "42": 3038,
      "75": 3039,
      "SE": 3040,
      "Sur": 3041,
      "Sha": 3042,
      "fun": 3043,
      "fund": 3044,
      "hs": 3045,
      "how": 3046,
      "mut": 3047,
      "oath": 3048,
      "pable": 3049,
      "ran": 3050,
      "arises": 3051,
      "entry": 3052,
      "cting": 3053,
      "star": 3054,
      "stipul": 3055,
      "device": 3056,
      "quar": 3057,
      "pred": 3058,
      "emphasis": 3059,
      "selves": 3060,
      "istance": 3061,
      "incap": 3062,
      "claiming": 3063,
      "twenty": 3064,
      "1990": 3065,
      "1997": 3066,
      "receive": 3067,
      "corro": 3068,
      "origin": 3069,
      "definition": 3070,
      "remaining": 3071,
      "normal": 3072,
      "Mah": 3073,
      "Mahar": 3074,
      "suffered": 3075,
      "quashing": 3076,
      "consistent": 3077,
      "separate": 3078,
      "Schedule": 3079,
      "water": 3080,
      "deduction": 3081,
      "homicide": 3082,
      "Engineer": 3083,
      "Superintendent": 3084,
      "Case": 3085,
      "Ho": 3086,
      "PRE": 3087,
      "cal": 3088,
      "iy": 3089,
      "nu": 3090,
      "spo": 3091,
      "inspe": 3092,
      "anj": 3093,
      "anced": 3094,
      "enquiry": 3095,
      "isance": 3096,
      "detention": 3097,
      "unit": 3098,
      "hear": 3099,
      "heir": 3100,
      "conferred": 3101,
      "containing": 3102,
      "concluded": 3103,
      "project": 3104,
      "amendment": 3105,
      "urged": 3106,
      "qua": 3107,
      "viz": 3108,
      "owry": 3109,
      "thereon": 3110,
      "1998": 3111,
      "ordinary": 3112,
      "failure": 3113,
      "drawn": 3114,
      "representative": 3115,
      "specifically": 3116,
      "litigation": 3117,
      "third": 3118,
      "adopted": 3119,
      "Others": 3120,
      "burden": 3121,
      "fraudulently": 3122,
      "sexual": 3123,
      "digital": 3124,
      "4th": 3125,
      "Air": 3126,
      "His": 3127,
      "Jan": 3128,
      "Min": 3129,
      "Pra": 3130,
      "bill": 3131,
      "gave": 3132,
      "nal": 3133,
      "sam": 3134,
      "sail": 3135,
      "inher": 3136,
      "chem": 3137,
      "room": 3138,
      "unable": 3139,
      "imes": 3140,
      "immovable": 3141,
      "perusal": 3142,
      "consolidation": 3143,
      "mad": 3144,
      "amil": 3145,
      "dies": 3146,
      "istry": 3147,
      "oblig": 3148,
      "ney": 3149,
      "technical": 3150,
      "2007": 3151,
      "relates": 3152,
      "sets": 3153,
      "Though": 3154,
      "applies": 3155,
      "allegation": 3156,
      "299": 3157,
      "guilt": 3158,
      "attempting": 3159,
      "copies": 3160,
      "Leg": 3161,
      "furnished": 3162,
      "grave": 3163,
      "advert": 3164,
      "Board": 3165,
      "Counsel": 3166,
      "DRC": 3167,
      "NCDRC": 3168,
      "names": 3169,
      "cruelty": 3170,
      "Another": 3171,
      "corrobor": 3172,
      "82": 3173,
      "IM": 3174,
      "Lak": 3175,
      "bes": 3176,
      "evid": 3177,
      "function": 3178,
      "ier": 3179,
      "kash": 3180,
      "send": 3181,
      "sco": 3182,
      "vs": 3183,
      "want": 3184,
      "ancies": 3185,
      "road": 3186,
      "confirmed": 3187,
      "vember": 3188,
      "November": 3189,
      "intim": 3190,
      "Sept": 3191,
      "ems": 3192,
      "duced": 3193,
      "rust": 3194,
      "matrimon": 3195,
      "occurred": 3196,
      "Ext": 3197,
      "foor": 3198,
      "Sukh": 3199,
      "salary": 3200,
      "INSC": 3201,
      "added": 3202,
      "employer": 3203,
      "covered": 3204,
      "wrongfully": 3205,
      "attached": 3206,
      "lature": 3207,
      "large": 3208,
      "threaten": 3209,
      "negligence": 3210,
      "ENCE": 3211,
      "Notwithstanding": 3212,
      "reached": 3213,
      "Ghafoor": 3214,
      "virtue": 3215,
      "scope": 3216,
      "September": 3217,
      "AIR": 3218,
      "Gu": 3219,
      "Muk": 3220,
      "Nav": 3221,
      "Ro": 3222,
      "xx": 3223,
      "ites": 3224,
      "step": 3225,
      "hem": 3226,
      "atever": 3227,
      "apart": 3228,
      "absol": 3229,
      "cut": 3230,
      "aging": 3231,
      "ters": 3232,
      "expend": 3233,
      "compromise": 3234,
      "admissible": 3235,
      "urb": 3236,
      "sole": 3237,
      "ponent": 3238,
      "foreign": 3239,
      "instead": 3240,
      "obstru": 3241,
      "interference": 3242,
      "issuance": 3243,
      "despite": 3244,
      "Devi": 3245,
      "log": 3246,
      "followed": 3247,
      "observ": 3248,
      "498": 3249,
      "suspic": 3250,
      "important": 3251,
      "valuable": 3252,
      "interpret": 3253,
      "genuine": 3254,
      "patient": 3255,
      "forfeiture": 3256,
      "Annexure": 3257,
      "January": 3258,
      "matrimonial": 3259,
      "420": 3260,
      "71": 3261,
      "85": 3262,
      "MIS": 3263,
      "Nag": 3264,
      "NIT": 3265,
      "Path": 3266,
      "WIT": 3267,
      "ape": 3268,
      "fut": 3269,
      "many": 3270,
      "although": 3271,
      "health": 3272,
      "perman": 3273,
      "caste": 3274,
      "affirm": 3275,
      "interested": 3276,
      "meth": 3277,
      "ople": 3278,
      "group": 3279,
      "isement": 3280,
      "constitution": 3281,
      "sequently": 3282,
      "1992": 3283,
      "curren": 3284,
      "exped": 3285,
      "specify": 3286,
      "operative": 3287,
      "wrongful": 3288,
      "Part": 3289,
      "assessed": 3290,
      "Before": 3291,
      "distin": 3292,
      "syst": 3293,
      "truth": 3294,
      "Simple": 3295,
      "purchaser": 3296,
      "July": 3297,
      "lines": 3298,
      "INDIA": 3299,
      "Ashok": 3300,
      "functions": 3301,
      "incapable": 3302,
      "absolute": 3303,
      "Pathak": 3304,
      "96": 3305,
      "BC": 3306,
      "CW": 3307,
      "Jag": 3308,
      "Pri": 3309,
      "With": 3310,
      "kanwar": 3311,
      "’)": 3312,
      "inder": 3313,
      "individ": 3314,
      "organ": 3315,
      "requiring": 3316,
      "iture": 3317,
      "cts": 3318,
      "cember": 3319,
      "beha": 3320,
      "sees": 3321,
      "roof": 3322,
      "whatever": 3323,
      "imate": 3324,
      "ici": 3325,
      "vey": 3326,
      "respond": 3327,
      "ired": 3328,
      "lling": 3329,
      "quis": 3330,
      "para": 3331,
      "parent": 3332,
      "Inter": 3333,
      "Secret": 3334,
      "tribu": 3335,
      "ization": 3336,
      "punishments": 3337,
      "raint": 3338,
      "clauses": 3339,
      "teen": 3340,
      "authorized": 3341,
      "related": 3342,
      "December": 3343,
      "food": 3344,
      "working": 3345,
      "women": 3346,
      "abets": 3347,
      "breaking": 3348,
      "mortem": 3349,
      "acceptance": 3350,
      "profits": 3351,
      "viron": 3352,
      "challenged": 3353,
      "apprehension": 3354,
      "adverse": 3355,
      "administer": 3356,
      "reserved": 3357,
      "probable": 3358,
      "Investigating": 3359,
      "facilit": 3360,
      "birth": 3361,
      "occurrence": 3362,
      "Prakash": 3363,
      "kanwarbai": 3364,
      "individual": 3365,
      "behavi": 3366,
      "2nd": 3367,
      "3rd": 3368,
      "44": 3369,
      "AC": 3370,
      "Do": 3371,
      "President": 3372,
      "bri": 3373,
      "cation": 3374,
      "dri": 3375,
      "dden": 3376,
      "ga": 3377,
      "hours": 3378,
      "lod": 3379,
      "old": 3380,
      "sa": 3381,
      "recogn": 3382,
      "resul": 3383,
      "sudden": 3384,
      "concurr": 3385,
      "proclamation": 3386,
      "riot": 3387,
      "urned": 3388,
      "sons": 3389,
      "esting": 3390,
      "mischief": 3391,
      "doctor": 3392,
      "affected": 3393,
      "1074": 3394,
      "laws": 3395,
      "compul": 3396,
      "reasonably": 3397,
      "whereby": 3398,
      "restraint": 3399,
      "Cont": 3400,
      "pendency": 3401,
      "Forum": 3402,
      "limited": 3403,
      "cycle": 3404,
      "376": 3405,
      "letters": 3406,
      "1988": 3407,
      "Petty": 3408,
      "forwarded": 3409,
      "settlement": 3410,
      "Regul": 3411,
      "supply": 3412,
      "falls": 3413,
      "testimonies": 3414,
      "situation": 3415,
      "expired": 3416,
      "residence": 3417,
      "physical": 3418,
      "seizure": 3419,
      "obstruction": 3420,
      "currency": 3421,
      "behaviour": 3422,
      "212": 3423,
      "69": 3424,
      "AD": 3425,
      "Aad": 3426,
      "Abet": 3427,
      "Fin": 3428,
      "ME": 3429,
      "More": 3430,
      "Pat": 3431,
      "PRO": 3432,
      "don": 3433,
      "dest": 3434,
      "dowry": 3435,
      "eld": 3436,
      "ply": 3437,
      "raud": 3438,
      "reliable": 3439,
      "dece": 3440,
      "apon": 3441,
      "ides": 3442,
      "excluded": 3443,
      "compar": 3444,
      "vert": 3445,
      "undergo": 3446,
      "actual": 3447,
      "viii": 3448,
      "uting": 3449,
      "feited": 3450,
      "feel": 3451,
      "weapon": 3452,
      "intercourse": 3453,
      "comply": 3454,
      "Exception": 3455,
      "136": 3456,
      "Deceased": 3457,
      "amounts": 3458,
      "rightly": 3459,
      "command": 3460,
      "included": 3461,
      "field": 3462,
      "270": 3463,
      "video": 3464,
      "knowingly": 3465,
      "memorandum": 3466,
      "equiv": 3467,
      "continue": 3468,
      "profession": 3469,
      "argued": 3470,
      "recovery": 3471,
      "believed": 3472,
      "society": 3473,
      "arrived": 3474,
      "void": 3475,
      "renewal": 3476,
      "dacoity": 3477,
      "MISSION": 3478,
      "system": 3479,
      "Secretary": 3480,
      "destro": 3481,
      "76": 3482,
      "Bal": 3483,
      "EX": 3484,
      "Mar": 3485,
      "PA": 3486,
      "UG": 3487,
      "election": 3488,
      "gener": 3489,
      "sit": 3490,
      "ored": 3491,
      "ense": 3492,
      "ature": 3493,
      "beg": 3494,
      "forged": 3495,
      "forgery": 3496,
      "hel": 3497,
      "nos": 3498,
      "people": 3499,
      "imin": 3500,
      "aps": 3501,
      "adjud": 3502,
      "hasra": 3503,
      "dice": 3504,
      "intro": 3505,
      "mises": 3506,
      "preced": 3507,
      "presume": 3508,
      "Examin": 3509,
      "regul": 3510,
      "registration": 3511,
      "motor": 3512,
      "1991": 3513,
      "granting": 3514,
      "ticles": 3515,
      "corporation": 3516,
      "abettor": 3517,
      "particulars": 3518,
      "judice": 3519,
      "induce": 3520,
      "abscond": 3521,
      "performed": 3522,
      "rendered": 3523,
      "arbitrary": 3524,
      "recovered": 3525,
      "divor": 3526,
      "creditor": 3527,
      "culpable": 3528,
      "filled": 3529,
      "exclusively": 3530,
      "ICTION": 3531,
      "guarant": 3532,
      "Nandkanwarbai": 3533,
      "Vijaya": 3534,
      "2259": 3535,
      "heirs": 3536,
      "cheme": 3537,
      "Sukhpal": 3538,
      "future": 3539,
      "constitutional": 3540,
      "Bach": 3541,
      "DICTION": 3542,
      "IMP": 3543,
      "bour": 3544,
      "card": 3545,
      "fif": 3546,
      "mult": 3547,
      "wal": 3548,
      "told": 3549,
      "esc": 3550,
      "role": 3551,
      "deleg": 3552,
      "icable": 3553,
      "abr": 3554,
      "shop": 3555,
      "agent": 3556,
      "notic": 3557,
      "coming": 3558,
      "20th": 3559,
      "living": 3560,
      "version": 3561,
      "subjected": 3562,
      "discharged": 3563,
      "disability": 3564,
      "misappropri": 3565,
      "coll": 3566,
      "avo": 3567,
      "127": 3568,
      "extended": 3569,
      "deser": 3570,
      "invest": 3571,
      "presented": 3572,
      "JURIS": 3573,
      "price": 3574,
      "aseem": 3575,
      "incor": 3576,
      "things": 3577,
      "returned": 3578,
      "fron": 3579,
      "advanced": 3580,
      "shares": 3581,
      "vessel": 3582,
      "principal": 3583,
      "suspended": 3584,
      "arguments": 3585,
      "grade": 3586,
      "apprehended": 3587,
      "situated": 3588,
      "Limitation": 3589,
      "Scheduled": 3590,
      "thirty": 3591,
      "restoration": 3592,
      "legislation": 3593,
      "categories": 3594,
      "explained": 3595,
      "tempor": 3596,
      "religious": 3597,
      "expenditure": 3598,
      "JURISDICTION": 3599,
      "4106": 3600,
      "5th": 3601,
      "87": 3602,
      "Go": 3603,
      "Khem": 3604,
      "New": 3605,
      "Naseem": 3606,
      "SP": 3607,
      "Sami": 3608,
      "TR": 3609,
      "bon": 3610,
      "dut": 3611,
      "fem": 3612,
      "lly": 3613,
      "national": 3614,
      "named": 3615,
      "rise": 3616,
      "sour": 3617,
      "scr": 3618,
      "wound": 3619,
      "ined": 3620,
      "erated": 3621,
      "annum": 3622,
      "ortion": 3623,
      "enal": 3624,
      "remand": 3625,
      "too": 3626,
      "arbitral": 3627,
      "becomes": 3628,
      "perquis": 3629,
      "consumer": 3630,
      "abuse": 3631,
      "notified": 3632,
      "explanation": 3633,
      "compu": 3634,
      "adjust": 3635,
      "adjour": 3636,
      "auto": 3637,
      "estate": 3638,
      "arest": 3639,
      "coin": 3640,
      "ously": 3641,
      "decla": 3642,
      "wholly": 3643,
      "Application": 3644,
      "opposite": 3645,
      "condon": 3646,
      "applications": 3647,
      "increas": 3648,
      "constituted": 3649,
      "identity": 3650,
      "inclus": 3651,
      "reading": 3652,
      "226": 3653,
      "ashtra": 3654,
      "create": 3655,
      "benefits": 3656,
      "SUPRE": 3657,
      "performance": 3658,
      "says": 3659,
      "signific": 3660,
      "cheating": 3661,
      "submits": 3662,
      "separately": 3663,
      "approached": 3664,
      "Technical": 3665,
      "mium": 3666,
      "harassment": 3667,
      "observations": 3668,
      "Khemka": 3669,
      "duties": 3670,
      "SUPREME": 3671,
      "54": 3672,
      "Bu": 3673,
      "Ka": 3674,
      "Med": 3675,
      "Punish": 3676,
      "Penal": 3677,
      "VER": 3678,
      "WAR": 3679,
      "ees": 3680,
      "fri": 3681,
      "hance": 3682,
      "hund": 3683,
      "ix": 3684,
      "lis": 3685,
      "save": 3686,
      "tun": 3687,
      "turn": 3688,
      "isation": 3689,
      "forfeited": 3690,
      "debtor": 3691,
      "imal": 3692,
      "omit": 3693,
      "agree": 3694,
      "aman": 3695,
      "among": 3696,
      "ading": 3697,
      "actually": 3698,
      "prefer": 3699,
      "prejudice": 3700,
      "instig": 3701,
      "asser": 3702,
      "factors": 3703,
      "rather": 3704,
      "interfer": 3705,
      "secure": 3706,
      "proceeded": 3707,
      "111": 3708,
      "complied": 3709,
      "mode": 3710,
      "moved": 3711,
      "attention": 3712,
      "indicates": 3713,
      "commenced": 3714,
      "respecting": 3715,
      "petitioners": 3716,
      "INAL": 3717,
      "addres": 3718,
      "retire": 3719,
      "upheld": 3720,
      "correspond": 3721,
      "particip": 3722,
      "ligible": 3723,
      "attempted": 3724,
      "remainder": 3725,
      "Aggrieved": 3726,
      "profit": 3727,
      "fourth": 3728,
      "connected": 3729,
      "cancel": 3730,
      "iversities": 3731,
      "Service": 3732,
      "unsoundness": 3733,
      "compelled": 3734,
      "officials": 3735,
      "reduced": 3736,
      "activities": 3737,
      "Banking": 3738,
      "azet": 3739,
      "judgement": 3740,
      "Trans": 3741,
      "contempl": 3742,
      "started": 3743,
      "iyam": 3744,
      "inherent": 3745,
      "evident": 3746,
      "WITH": 3747,
      "escape": 3748,
      "hundred": 3749,
      "432": 3750,
      "During": 3751,
      "LATE": 3752,
      "Nar": 3753,
      "Will": 3754,
      "bing": 3755,
      "cil": 3756,
      "ecess": 3757,
      "fide": 3758,
      "government": 3759,
      "hin": 3760,
      "psy": 3761,
      "rine": 3762,
      "….": 3763,
      "enhance": 3764,
      "edience": 3765,
      "iso": 3766,
      "reject": 3767,
      "remed": 3768,
      "reproduced": 3769,
      "reliance": 3770,
      "super": 3771,
      "suspe": 3772,
      "least": 3773,
      "forced": 3774,
      "defect": 3775,
      "university": 3776,
      "idated": 3777,
      "allot": 3778,
      "excess": 3779,
      "admit": 3780,
      "advant": 3781,
      "igned": 3782,
      "Insurance": 3783,
      "istrative": 3784,
      "parts": 3785,
      "presiding": 3786,
      "obedience": 3787,
      "interfere": 3788,
      "187": 3789,
      "relatives": 3790,
      "market": 3791,
      "plots": 3792,
      "ERS": 3793,
      "themselves": 3794,
      "shows": 3795,
      "concerning": 3796,
      "consequences": 3797,
      "completion": 3798,
      "exists": 3799,
      "workman": 3800,
      "determination": 3801,
      "continued": 3802,
      "succeed": 3803,
      "quashed": 3804,
      "carry": 3805,
      "qualified": 3806,
      "lakhs": 3807,
      "pursuant": 3808,
      "pursuance": 3809,
      "infli": 3810,
      "sustained": 3811,
      "APPELLATE": 3812,
      "extracted": 3813,
      "idnapp": 3814,
      "Moham": 3815,
      "Maharashtra": 3816,
      "calcul": 3817,
      "suspicion": 3818,
      "permanent": 3819,
      "method": 3820,
      "compulsory": 3821,
      "female": 3822,
      "suspected": 3823,
      "52": 3824,
      "Br": 3825,
      "Cal": 3826,
      "Is": 3827,
      "LRs": 3828,
      "Mit": 3829,
      "Rig": 3830,
      "SA": 3831,
      "TION": 3832,
      "Utt": 3833,
      "Ullah": 3834,
      "burn": 3835,
      "fabr": 3836,
      "hu": 3837,
      "happ": 3838,
      "jor": 3839,
      "times": 3840,
      "wid": 3841,
      "ane": 3842,
      "isk": 3843,
      "recall": 3844,
      "escap": 3845,
      "ingred": 3846,
      "ctrine": 3847,
      "forces": 3848,
      "depri": 3849,
      "pected": 3850,
      "proposed": 3851,
      "major": 3852,
      "shot": 3853,
      "accus": 3854,
      "ifying": 3855,
      "llation": 3856,
      "disclo": 3857,
      "itioner": 3858,
      "ishes": 3859,
      "affirmed": 3860,
      "assail": 3861,
      "proviso": 3862,
      "opponent": 3863,
      "summar": 3864,
      "contro": 3865,
      "crimin": 3866,
      "owners": 3867,
      "plement": 3868,
      "warrants": 3869,
      "Adhin": 3870,
      "Pramil": 3871,
      "refers": 3872,
      "1972": 3873,
      "Under": 3874,
      "particularly": 3875,
      "drawing": 3876,
      "remains": 3877,
      "equal": 3878,
      "bodily": 3879,
      "jails": 3880,
      "argument": 3881,
      "practice": 3882,
      "practitioner": 3883,
      "immediate": 3884,
      "instructions": 3885,
      "Herein": 3886,
      "damages": 3887,
      "sells": 3888,
      "concealment": 3889,
      "expiry": 3890,
      "meeting": 3891,
      "Services": 3892,
      "RANT": 3893,
      "legislative": 3894,
      "appreciation": 3895,
      "BLE": 3896,
      "adequ": 3897,
      "independent": 3898,
      "stipulated": 3899,
      "predecess": 3900,
      "spot": 3901,
      "computer": 3902,
      "WARRANT": 3903,
      "retirement": 3904,
      "ingredient": 3905,
      "Adhiniyam": 3906,
      "Pramila": 3907,
      "55": 3908,
      "81": 3909,
      "90": 3910,
      "Al": 3911,
      "Ahas": 3912,
      "BMISSION": 3913,
      "CL": 3914,
      "EMP": 3915,
      "IC": 3916,
      "Municipal": 3917,
      "PM": 3918,
      "[(": 3919,
      "aver": 3920,
      "cise": 3921,
      "din": 3922,
      "gar": 3923,
      "ik": 3924,
      "mary": 3925,
      "met": 3926,
      "ood": 3927,
      "oks": 3928,
      "vision": 3929,
      "ender": 3930,
      "enable": 3931,
      "encies": 3932,
      "reported": 3933,
      "always": 3934,
      "entries": 3935,
      "beh": 3936,
      "bear": 3937,
      "chequ": 3938,
      "approved": 3939,
      "acknowled": 3940,
      "Inspe": 3941,
      "1908": 3942,
      "disposition": 3943,
      "clude": 3944,
      "utes": 3945,
      "doctrine": 3946,
      "properly": 3947,
      "extortion": 3948,
      "Proper": 3949,
      "Judgment": 3950,
      "restrain": 3951,
      "indicated": 3952,
      "Impugned": 3953,
      "described": 3954,
      "regards": 3955,
      "cipl": 3956,
      "expressed": 3957,
      "RESP": 3958,
      "think": 3959,
      "conclusive": 3960,
      "previously": 3961,
      "suspension": 3962,
      "status": 3963,
      "SUS": 3964,
      "SUBMISSION": 3965,
      "Corporate": 3966,
      "disturb": 3967,
      "primary": 3968,
      "administrative": 3969,
      "cancellation": 3970,
      "expressly": 3971,
      "ONDENT": 3972,
      "exempl": 3973,
      "successful": 3974,
      "activity": 3975,
      "validity": 3976,
      "Emphasis": 3977,
      "samples": 3978,
      "interpretation": 3979,
      "inclusive": 3980,
      "Punishment": 3981,
      "Rigorous": 3982,
      "RESPONDENT": 3983,
      "316": 3984,
      "506": 3985,
      "84": 3986,
      "9202": 3987,
      "9204": 3988,
      "Ais": 3989,
      "Des": 3990,
      "FR": 3991,
      "Fe": 3992,
      "Lo": 3993,
      "Sud": 3994,
      "Yad": 3995,
      "actions": 3996,
      "fig": 3997,
      "sm": 3998,
      "scheme": 3999,
      "yard": 4000,
      "inent": 4001,
      "ery": 4002,
      "anno": 4003,
      "ancy": 4004,
      "ories": 4005,
      "enjo": 4006,
      "relying": 4007,
      "tol": 4008,
      "associ": 4009,
      "assets": 4010,
      "around": 4011,
      "cture": 4012,
      "suic": 4013,
      "sured": 4014,
      "superi": 4015,
      "lev": 4016,
      "rop": 4017,
      "still": 4018,
      "derived": 4019,
      "impres": 4020,
      "perts": 4021,
      "permissible": 4022,
      "procu": 4023,
      "prosecu": 4024,
      "abour": 4025,
      "sho": 4026,
      "agency": 4027,
      "amen": 4028,
      "adduced": 4029,
      "live": 4030,
      "uru": 4031,
      "audi": 4032,
      "mistake": 4033,
      "meant": 4034,
      "option": 4035,
      "115": 4036,
      "Protection": 4037,
      "142": 4038,
      "tea": 4039,
      "1860": 4040,
      "139": 4041,
      "And": 4042,
      "interests": 4043,
      "Reference": 4044,
      "stock": 4045,
      "reports": 4046,
      "OFF": 4047,
      "directs": 4048,
      "branch": 4049,
      "1973": 4050,
      "conducting": 4051,
      "murdered": 4052,
      "disputes": 4053,
      "consequently": 4054,
      "REP": 4055,
      "affic": 4056,
      "Para": 4057,
      "engaged": 4058,
      "statute": 4059,
      "determining": 4060,
      "providing": 4061,
      "practicable": 4062,
      "publication": 4063,
      "5932": 4064,
      "legislature": 4065,
      "believes": 4066,
      "CRIM": 4067,
      "reservation": 4068,
      "airman": 4069,
      "substantive": 4070,
      "contentions": 4071,
      "leading": 4072,
      "prayer": 4073,
      "prayed": 4074,
      "gains": 4075,
      "Bhag": 4076,
      "confirmation": 4077,
      "Information": 4078,
      "nuisance": 4079,
      "inspection": 4080,
      "facilitate": 4081,
      "brief": 4082,
      "lodged": 4083,
      "divorce": 4084,
      "Mohammad": 4085,
      "Uttar": 4086,
      "happen": 4087,
      "predecessor": 4088,
      "Property": 4089,
      "Yadav": 4090,
      "annoy": 4091,
      "suicide": 4092,
      "superior": 4093,
      "CRIMINAL": 4094,
      "79": 4095,
      "AICT": 4096,
      "Cl": 4097,
      "CON": 4098,
      "Govern": 4099,
      "Jo": 4100,
      "Land": 4101,
      "List": 4102,
      "Law": 4103,
      "Ms": 4104,
      "OP": 4105,
      "One": 4106,
      "P4": 4107,
      "Sa": 4108,
      "VI": 4109,
      "afore": 4110,
      "ban": 4111,
      "bru": 4112,
      "crit": 4113,
      "ding": 4114,
      "dom": 4115,
      "eligible": 4116,
      "gun": 4117,
      "gest": 4118,
      "lower": 4119,
      "pis": 4120,
      "round": 4121,
      "twel": 4122,
      "vin": 4123,
      "enhan": 4124,
      "ats": 4125,
      "attract": 4126,
      "rely": 4127,
      "ases": 4128,
      "itious": 4129,
      "ctly": 4130,
      "deferred": 4131,
      "perused": 4132,
      "conven": 4133,
      "proclaimed": 4134,
      "proportion": 4135,
      "idge": 4136,
      "explo": 4137,
      "aded": 4138,
      "accru": 4139,
      "authen": 4140,
      "divided": 4141,
      "disper": 4142,
      "ulter": 4143,
      "117": 4144,
      "148": 4145,
      "sumed": 4146,
      "PW18": 4147,
      "ankar": 4148,
      "1894": 4149,
      "Anr": 4150,
      "Debtor": 4151,
      "hereinbefore": 4152,
      "238": 4153,
      "dismissing": 4154,
      "refused": 4155,
      "1985": 4156,
      "represented": 4157,
      "induces": 4158,
      "collect": 4159,
      "suffering": 4160,
      "Being": 4161,
      "Bio": 4162,
      "killed": 4163,
      "pertinent": 4164,
      "initiated": 4165,
      "Both": 4166,
      "furnishing": 4167,
      "restored": 4168,
      "aulted": 4169,
      "TABLE": 4170,
      "pronounced": 4171,
      "Mahendra": 4172,
      "Hospital": 4173,
      "sailor": 4174,
      "Abetment": 4175,
      "equival": 4176,
      "Examination": 4177,
      "noticed": 4178,
      "VERSUS": 4179,
      "Mitra": 4180,
      "widow": 4181,
      "Hereinafter": 4182,
      "cheque": 4183,
      "SUBMISSIONS": 4184,
      "audio": 4185,
      "REPOR": 4186,
      "Governor": 4187,
      "twelve": 4188,
      ",––": 4189,
      "73": 4190,
      "BE": 4191,
      "Cer": 4192,
      "Diary": 4193,
      "FA": 4194,
      "FRO": 4195,
      "Khasra": 4196,
      "NED": 4197,
      "Pur": 4198,
      "Sale": 4199,
      "Voluntarily": 4200,
      "ament": 4201,
      "bi": 4202,
      "cious": 4203,
      "diff": 4204,
      "ease": 4205,
      "jan": 4206,
      "knew": 4207,
      "las": 4208,
      "none": 4209,
      "night": 4210,
      "risk": 4211,
      "tes": 4212,
      "ties": 4213,
      "ution": 4214,
      "uous": 4215,
      "wan": 4216,
      "’,": 4217,
      "’).": 4218,
      "inquired": 4219,
      "incurred": 4220,
      "eness": 4221,
      "enabl": 4222,
      "remit": 4223,
      "alia": 4224,
      "aster": 4225,
      "ascertain": 4226,
      "arm": 4227,
      "arise": 4228,
      "entrust": 4229,
      "seized": 4230,
      "sug": 4231,
      "demon": 4232,
      "imately": 4233,
      "confer": 4234,
      "protection": 4235,
      "rescu": 4236,
      "offers": 4237,
      "Indu": 4238,
      "190": 4239,
      "plate": 4240,
      "thereunder": 4241,
      "1031": 4242,
      "What": 4243,
      "caution": 4244,
      "deciding": 4245,
      "former": 4246,
      "nearest": 4247,
      "paying": 4248,
      "166": 4249,
      "marhi": 4250,
      "257": 4251,
      "idelines": 4252,
      "lot": 4253,
      "1993": 4254,
      "1995": 4255,
      "contrav": 4256,
      "standard": 4257,
      "works": 4258,
      "hands": 4259,
      "falsely": 4260,
      "1950": 4261,
      "fails": 4262,
      "entering": 4263,
      "termination": 4264,
      "facility": 4265,
      "preventing": 4266,
      "pair": 4267,
      "longest": 4268,
      "apprehend": 4269,
      "arbitration": 4270,
      "bidder": 4271,
      "compel": 4272,
      "vacancies": 4273,
      "discussion": 4274,
      "SEC": 4275,
      "steps": 4276,
      "Moreover": 4277,
      "help": 4278,
      "addressed": 4279,
      "AICTE": 4280,
      "pistol": 4281,
      "authentic": 4282,
      "equivalent": 4283,
      "REPORTABLE": 4284,
      "FROM": 4285,
      "313": 4286,
      "338": 4287,
      "400": 4288,
      "406": 4289,
      "600": 4290,
      "80": 4291,
      "92": 4292,
      "BY": 4293,
      "Gr": 4294,
      "Gazet": 4295,
      "Mem": 4296,
      "Ra": 4297,
      "WFR": 4298,
      "dil": 4299,
      "hic": 4300,
      "pie": 4301,
      "tend": 4302,
      "iny": 4303,
      "erred": 4304,
      "ores": 4305,
      "reit": 4306,
      "arre": 4307,
      "aries": 4308,
      "impose": 4309,
      "maxim": 4310,
      "notwithstanding": 4311,
      "expected": 4312,
      "experts": 4313,
      "compr": 4314,
      "aming": 4315,
      "liament": 4316,
      "inte": 4317,
      "prisoners": 4318,
      "premises": 4319,
      "wee": 4320,
      "decreed": 4321,
      "serving": 4322,
      "effected": 4323,
      "122": 4324,
      "olog": 4325,
      "................................................": 4326,
      "compan": 4327,
      "extends": 4328,
      "Arbitral": 4329,
      "132": 4330,
      "pendens": 4331,
      "seek": 4332,
      "requis": 4333,
      "fring": 4334,
      "21st": 4335,
      "employment": 4336,
      "surgery": 4337,
      "refuses": 4338,
      "construed": 4339,
      "deals": 4340,
      "representing": 4341,
      "cruit": 4342,
      "errone": 4343,
      "Environ": 4344,
      "believing": 4345,
      "watch": 4346,
      "LANT": 4347,
      "completely": 4348,
      "soldier": 4349,
      "Investigation": 4350,
      "measuring": 4351,
      "APPELLANT": 4352,
      "hibits": 4353,
      "Junior": 4354,
      "recommendations": 4355,
      "obligation": 4356,
      "concurrent": 4357,
      "EXEMP": 4358,
      "UGNED": 4359,
      "generally": 4360,
      "motorcycle": 4361,
      "IMPUGNED": 4362,
      "temporary": 4363,
      "significant": 4364,
      "idnapping": 4365,
      "Branch": 4366,
      "accusation": 4367,
      "ingredients": 4368,
      "Inspector": 4369,
      "small": 4370,
      "enhanced": 4371,
      "WFRPL": 4372,
      "EXEMPTION": 4373,
      "\".": 4374,
      "112": 4375,
      "56": 4376,
      "95": 4377,
      "Cau": 4378,
      "COND": 4379,
      "From": 4380,
      "Jain": 4381,
      "PO": 4382,
      "Sat": 4383,
      "dates": 4384,
      "een": 4385,
      "obe": 4386,
      "vol": 4387,
      "inno": 4388,
      "eral": 4389,
      "animal": 4390,
      "enmity": 4391,
      "rees": 4392,
      "alone": 4393,
      "iting": 4394,
      "became": 4395,
      "forum": 4396,
      "uni": 4397,
      "impl": 4398,
      "omits": 4399,
      "conve": 4400,
      "prote": 4401,
      "antial": 4402,
      "printed": 4403,
      "vii": 4404,
      "areas": 4405,
      "Select": 4406,
      "cler": 4407,
      "possibility": 4408,
      "emer": 4409,
      "door": 4410,
      "outcome": 4411,
      "presumption": 4412,
      "assigned": 4413,
      "obtaining": 4414,
      "legit": 4415,
      "leges": 4416,
      "afterwards": 4417,
      "graph": 4418,
      "sentences": 4419,
      "ock": 4420,
      "reasoning": 4421,
      "desires": 4422,
      "144": 4423,
      "2005": 4424,
      "Appeals": 4425,
      "amounting": 4426,
      "indicate": 4427,
      "Suit": 4428,
      "questioned": 4429,
      "investigate": 4430,
      "circumstantial": 4431,
      "deposits": 4432,
      "tics": 4433,
      "upwards": 4434,
      "Adv": 4435,
      "worth": 4436,
      "351": 4437,
      "Reser": 4438,
      "summoned": 4439,
      "mandatory": 4440,
      "1956": 4441,
      "posts": 4442,
      "1989": 4443,
      "Manual": 4444,
      "operate": 4445,
      "myself": 4446,
      "representation": 4447,
      "ysis": 4448,
      "citizens": 4449,
      "Parliament": 4450,
      "candidate": 4451,
      "purchased": 4452,
      "assessing": 4453,
      "agricult": 4454,
      "background": 4455,
      "higher": 4456,
      "continues": 4457,
      "establishment": 4458,
      "consists": 4459,
      "barred": 4460,
      "substantial": 4461,
      "filling": 4462,
      "hibition": 4463,
      "discussed": 4464,
      "organised": 4465,
      "tribution": 4466,
      "recognised": 4467,
      "resulting": 4468,
      "introdu": 4469,
      "misappropriation": 4470,
      "front": 4471,
      "bona": 4472,
      "scrut": 4473,
      "adjourn": 4474,
      "condonation": 4475,
      "psych": 4476,
      "enhancement": 4477,
      "remedy": 4478,
      "Febru": 4479,
      "Biotics": 4480,
      "arrears": 4481,
      "February": 4482,
      "62": 4483,
      "Def": 4484,
      "DER": 4485,
      "GI": 4486,
      "PSC": 4487,
      "Rev": 4488,
      "Sr": 4489,
      "Sunit": 4490,
      "XII": 4491,
      "iation": 4492,
      "ji": 4493,
      "wil": 4494,
      "wages": 4495,
      "infir": 4496,
      "insult": 4497,
      "inconsistent": 4498,
      "ange": 4499,
      "ofar": 4500,
      "enacted": 4501,
      "atch": 4502,
      "issa": 4503,
      "reputation": 4504,
      "ional": 4505,
      "alu": 4506,
      "tot": 4507,
      "sues": 4508,
      "imum": 4509,
      "icating": 4510,
      "pers": 4511,
      "propri": 4512,
      "exchange": 4513,
      "traffic": 4514,
      "personally": 4515,
      "que": 4516,
      "quant": 4517,
      "soever": 4518,
      "vires": 4519,
      "dian": 4520,
      "Note": 4521,
      "dispose": 4522,
      "dispen": 4523,
      "disobe": 4524,
      "dues": 4525,
      "fees": 4526,
      "assistance": 4527,
      "States": 4528,
      "books": 4529,
      "crores": 4530,
      "manif": 4531,
      "Develop": 4532,
      "hood": 4533,
      "putting": 4534,
      "ildar": 4535,
      "allowing": 4536,
      "single": 4537,
      "235": 4538,
      "tification": 4539,
      "dismiss": 4540,
      "Admin": 4541,
      "Banks": 4542,
      "limit": 4543,
      "belief": 4544,
      "1979": 4545,
      "Universities": 4546,
      "plaintiffs": 4547,
      "applying": 4548,
      "whatsoever": 4549,
      "capable": 4550,
      "Subject": 4551,
      "requirements": 4552,
      "remained": 4553,
      "conscious": 4554,
      "results": 4555,
      "enging": 4556,
      "belongs": 4557,
      "remove": 4558,
      "MPPSC": 4559,
      "detailed": 4560,
      "falling": 4561,
      "stayed": 4562,
      "qualification": 4563,
      "Similar": 4564,
      "structures": 4565,
      "responsible": 4566,
      "contains": 4567,
      "aspects": 4568,
      "guardian": 4569,
      "Mischief": 4570,
      "hsildar": 4571,
      "Ministry": 4572,
      "Control": 4573,
      "Regulation": 4574,
      "sitting": 4575,
      "avoid": 4576,
      "declare": 4577,
      "contemplated": 4578,
      "advantage": 4579,
      "integr": 4580,
      "cruitment": 4581,
      "Sunita": 4582,
      "110": 4583,
      "427": 4584,
      "5A": 4585,
      "7257": 4586,
      "83": 4587,
      "Das": 4588,
      "Fraud": 4589,
      "HI": 4590,
      "Kail": 4591,
      "Me": 4592,
      "Ob": 4593,
      "P3": 4594,
      "So": 4595,
      "gal": 4596,
      "gent": 4597,
      "late": 4598,
      "narr": 4599,
      "pare": 4600,
      "rates": 4601,
      "session": 4602,
      "usu": 4603,
      "wall": 4604,
      "yet": 4605,
      "thes": 4606,
      "annex": 4607,
      "enn": 4608,
      "enforce": 4609,
      "recogniz": 4610,
      "today": 4611,
      "itute": 4612,
      "ford": 4613,
      "concession": 4614,
      "promo": 4615,
      "ante": 4616,
      "undertaking": 4617,
      "undergone": 4618,
      "dict": 4619,
      "Notification": 4620,
      "1935": 4621,
      "therefor": 4622,
      "therefrom": 4623,
      "places": 4624,
      "prepare": 4625,
      "fell": 4626,
      "103": 4627,
      "press": 4628,
      "properties": 4629,
      "ureau": 4630,
      "factual": 4631,
      "forms": 4632,
      "blood": 4633,
      "fired": 4634,
      "evalu": 4635,
      "teach": 4636,
      "move": 4637,
      "courtyard": 4638,
      "restri": 4639,
      "better": 4640,
      "Supp": 4641,
      "defici": 4642,
      "Consider": 4643,
      "ONATION": 4644,
      "allowance": 4645,
      "Orissa": 4646,
      "revoked": 4647,
      "minimum": 4648,
      "custom": 4649,
      "survey": 4650,
      "referring": 4651,
      "1976": 4652,
      "1958": 4653,
      "364": 4654,
      "created": 4655,
      "entertained": 4656,
      "objects": 4657,
      "Management": 4658,
      "difference": 4659,
      "Claim": 4660,
      "satisfy": 4661,
      "Mohan": 4662,
      "defendants": 4663,
      "Tauru": 4664,
      "heads": 4665,
      "Rajesh": 4666,
      "concealing": 4667,
      "residential": 4668,
      "correctly": 4669,
      "Person": 4670,
      "habit": 4671,
      "purports": 4672,
      "negligently": 4673,
      "LAY": 4674,
      "Presumption": 4675,
      "binding": 4676,
      "DELAY": 4677,
      "Amendment": 4678,
      "120B": 4679,
      "development": 4680,
      "Legis": 4681,
      "intimidation": 4682,
      "threatened": 4683,
      "perquisites": 4684,
      "interfered": 4685,
      "Transfer": 4686,
      "majority": 4687,
      "cisely": 4688,
      "exemplars": 4689,
      "OFFENCE": 4690,
      "Gazette": 4691,
      "fringe": 4692,
      "Causing": 4693,
      "CONDONATION": 4694,
      "infirmity": 4695,
      "1A": 4696,
      "63": 4697,
      "78": 4698,
      "939": 4699,
      "AG": 4700,
      "Bad": 4701,
      "BOND": 4702,
      "CBI": 4703,
      "Dur": 4704,
      "HU": 4705,
      "Lord": 4706,
      "Let": 4707,
      "MM": 4708,
      "Now": 4709,
      "PU": 4710,
      "Tha": 4711,
      "Upon": 4712,
      "eigh": 4713,
      "great": 4714,
      "lal": 4715,
      "oted": 4716,
      "oking": 4717,
      "page": 4718,
      "tar": 4719,
      "vt": 4720,
      "“(": 4721,
      "ony": 4722,
      "inser": 4723,
      "insurance": 4724,
      "ann": 4725,
      "rea": 4726,
      "rec": 4727,
      "reques": 4728,
      "reply": 4729,
      "repair": 4730,
      "alive": 4731,
      "touch": 4732,
      "ask": 4733,
      "itive": 4734,
      "seems": 4735,
      "sun": 4736,
      "stair": 4737,
      "improve": 4738,
      "imputation": 4739,
      "conomic": 4740,
      "mach": 4741,
      "cum": 4742,
      "cuse": 4743,
      "vehic": 4744,
      "understood": 4745,
      "social": 4746,
      "owned": 4747,
      "discipl": 4748,
      "inting": 4749,
      "affair": 4750,
      "afford": 4751,
      "premium": 4752,
      "few": 4753,
      "rug": 4754,
      "ouses": 4755,
      "factory": 4756,
      "serve": 4757,
      "neck": 4758,
      "125": 4759,
      "compound": 4760,
      "examining": 4761,
      "native": 4762,
      "151": 4763,
      "guard": 4764,
      "relate": 4765,
      "164": 4766,
      "willing": 4767,
      "defamation": 4768,
      "Consequently": 4769,
      "marked": 4770,
      "323": 4771,
      "monthly": 4772,
      "pleas": 4773,
      "frame": 4774,
      "framing": 4775,
      "bridge": 4776,
      "ainted": 4777,
      "handed": 4778,
      "employees": 4779,
      "mandate": 4780,
      "receives": 4781,
      "holds": 4782,
      "entertain": 4783,
      "ANCE": 4784,
      "Shiv": 4785,
      "Shankar": 4786,
      "sense": 4787,
      "491": 4788,
      "sixty": 4789,
      "CEC": 4790,
      "certifying": 4791,
      "highest": 4792,
      "saying": 4793,
      "dishonest": 4794,
      "signing": 4795,
      "litig": 4796,
      "illegality": 4797,
      "trees": 4798,
      "receiver": 4799,
      "expiration": 4800,
      "quality": 4801,
      "initially": 4802,
      "XXI": 4803,
      "withdrawn": 4804,
      "exemption": 4805,
      "facilities": 4806,
      "Secondly": 4807,
      "implied": 4808,
      "pped": 4809,
      "chool": 4810,
      "June": 4811,
      "originally": 4812,
      "Mukand": 4813,
      "Navy": 4814,
      "expedient": 4815,
      "CWP": 4816,
      "increase": 4817,
      "Medical": 4818,
      "friend": 4819,
      "deprived": 4820,
      "adequate": 4821,
      "aforementioned": 4822,
      "Certif": 4823,
      "enabling": 4824,
      "piece": 4825,
      "requisite": 4826,
      "totally": 4827,
      "Development": 4828,
      "Kailash": 4829,
      "requested": 4830,
      "401": 4831,
      "61": 4832,
      "7th": 4833,
      "93": 4834,
      "Bha": 4835,
      "CA": 4836,
      "Fund": 4837,
      "HAR": 4838,
      "JC": 4839,
      "LE": 4840,
      "Sult": 4841,
      "Var": 4842,
      "WI": 4843,
      "[…": 4844,
      "bours": 4845,
      "fl": 4846,
      "govern": 4847,
      "jar": 4848,
      "nav": 4849,
      "ror": 4850,
      "sched": 4851,
      "vent": 4852,
      "articles": 4853,
      "ingly": 4854,
      "oud": 4855,
      "oul": 4856,
      "anda": 4857,
      "cell": 4858,
      "lege": 4859,
      "staff": 4860,
      "implication": 4861,
      "icature": 4862,
      "prom": 4863,
      "promotion": 4864,
      "mail": 4865,
      "abor": 4866,
      "export": 4867,
      "excuse": 4868,
      "acknowledge": 4869,
      "understand": 4870,
      "prud": 4871,
      "ivas": 4872,
      "193": 4873,
      "disease": 4874,
      "earn": 4875,
      "istrar": 4876,
      "utation": 4877,
      "play": 4878,
      "aft": 4879,
      "pret": 4880,
      "105": 4881,
      "tribut": 4882,
      "illicit": 4883,
      "formal": 4884,
      "forming": 4885,
      "interview": 4886,
      "secured": 4887,
      "missions": 4888,
      "olution": 4889,
      "....................................": 4890,
      "box": 4891,
      "Proof": 4892,
      "cry": 4893,
      "Sanj": 4894,
      "16th": 4895,
      "attested": 4896,
      "Comm": 4897,
      "identification": 4898,
      "loans": 4899,
      "justify": 4900,
      "requisition": 4901,
      "transactions": 4902,
      "Advert": 4903,
      "supposed": 4904,
      "worship": 4905,
      "clearance": 4906,
      "surround": 4907,
      "break": 4908,
      "allegedly": 4909,
      "contracting": 4910,
      "failing": 4911,
      "buys": 4912,
      "shortly": 4913,
      "inducing": 4914,
      "secondary": 4915,
      "challenging": 4916,
      "ASG": 4917,
      "aware": 4918,
      "opened": 4919,
      "Rajendra": 4920,
      "conclusions": 4921,
      "arbitrator": 4922,
      "hibited": 4923,
      "pleaded": 4924,
      "correctness": 4925,
      "importance": 4926,
      "STATE": 4927,
      "paragraphs": 4928,
      "response": 4929,
      "modified": 4930,
      "regularity": 4931,
      "exceptions": 4932,
      "pronounce": 4933,
      "occupation": 4934,
      "availed": 4935,
      "repeal": 4936,
      "advertisement": 4937,
      "absolutely": 4938,
      "Private": 4939,
      "administered": 4940,
      "2129": 4941,
      "Aadhar": 4942,
      "Financial": 4943,
      "guarantee": 4944,
      "multiple": 4945,
      "rejecting": 4946,
      "summarily": 4947,
      "behind": 4948,
      "accrued": 4949,
      "disperse": 4950,
      "difficult": 4951,
      "contravention": 4952,
      "Memorandum": 4953,
      "reiterated": 4954,
      "Fraudul": 4955,
      "sessions": 4956,
      "[…]": 4957,
      "Advertisement": 4958,
      "300": 4959,
      "331": 4960,
      "43": 4961,
      "51": 4962,
      "9th": 4963,
      "AM": 4964,
      "Ali": 4965,
      "Bar": 4966,
      "Bhon": 4967,
      "Bureau": 4968,
      "Clear": 4969,
      "CIT": 4970,
      "DW": 4971,
      "Dho": 4972,
      "Edu": 4973,
      "Facts": 4974,
      "House": 4975,
      "ICE": 4976,
      "LAT": 4977,
      "Member": 4978,
      "PAR": 4979,
      "SS": 4980,
      "Sri": 4981,
      "Sum": 4982,
      "Sheet": 4983,
      "Tw": 4984,
      "Tor": 4985,
      "US": 4986,
      "Ver": 4987,
      "amental": 4988,
      "ba": 4989,
      "drug": 4990,
      "fourt": 4991,
      "hor": 4992,
      "ko": 4993,
      "men": 4994,
      "mob": 4995,
      "municipal": 4996,
      "table": 4997,
      "uplo": 4998,
      "theless": 4999,
      "eraj": 5000,
      "eria": 5001,
      "orage": 5002,
      "retain": 5003,
      "astru": 5004,
      "aray": 5005,
      "ctuary": 5006,
      "selected": 5007,
      "rower": 5008,
      "undivided": 5009,
      "imposing": 5010,
      "ilities": 5011,
      "consult": 5012,
      "abad": 5013,
      "terror": 5014,
      "amal": 5015,
      "acle": 5016,
      "undertaken": 5017,
      "quisition": 5018,
      "1947": 5019,
      "util": 5020,
      "usion": 5021,
      "instances": 5022,
      "rupt": 5023,
      "assist": 5024,
      "Stand": 5025,
      "format": 5026,
      "126": 5027,
      "speak": 5028,
      "extending": 5029,
      "whenever": 5030,
      "suming": 5031,
      "summary": 5032,
      "PW1": 5033,
      "PW5": 5034,
      "189": 5035,
      "appeared": 5036,
      "150": 5037,
      "154": 5038,
      "156": 5039,
      "15th": 5040,
      "Death": 5041,
      "claimant": 5042,
      "puts": 5043,
      "308": 5044,
      "326": 5045,
      "documentary": 5046,
      "conditional": 5047,
      "hires": 5048,
      "torney": 5049,
      "frastru": 5050,
      "legality": 5051,
      "Official": 5052,
      "complaints": 5053,
      "cially": 5054,
      "294": 5055,
      "concern": 5056,
      "observe": 5057,
      "ITION": 5058,
      "Officers": 5059,
      "expense": 5060,
      "1952": 5061,
      "1953": 5062,
      "369": 5063,
      "contracts": 5064,
      "securing": 5065,
      "bush": 5066,
      "consequential": 5067,
      "signat": 5068,
      "Subsequently": 5069,
      "Attorney": 5070,
      "oluntary": 5071,
      "delayed": 5072,
      "Making": 5073,
      "Colleges": 5074,
      "Assault": 5075,
      "Tahsildar": 5076,
      "violence": 5077,
      "violated": 5078,
      "Registrar": 5079,
      "visit": 5080,
      "visible": 5081,
      "grav": 5082,
      "scale": 5083,
      "involving": 5084,
      "Furthermore": 5085,
      "cheats": 5086,
      "truction": 5087,
      "nearly": 5088,
      "affecting": 5089,
      "getting": 5090,
      "influ": 5091,
      "occasions": 5092,
      "structure": 5093,
      "Neeraj": 5094,
      "measures": 5095,
      "Bhu": 5096,
      "inquire": 5097,
      "judicating": 5098,
      "tendered": 5099,
      "divisional": 5100,
      "analysis": 5101,
      "anji": 5102,
      "Legal": 5103,
      "Lakhs": 5104,
      "cutta": 5105,
      "Jagvir": 5106,
      "Patna": 5107,
      "feelings": 5108,
      "inducement": 5109,
      "incorrect": 5110,
      "Bux": 5111,
      "Kaur": 5112,
      "tune": 5113,
      "instigates": 5114,
      "Calcutta": 5115,
      "escaped": 5116,
      "annoyance": 5117,
      "Class": 5118,
      "maximum": 5119,
      "legitimate": 5120,
      "Advocate": 5121,
      "agricultural": 5122,
      "manifestly": 5123,
      "concessional": 5124,
      "deficiency": 5125,
      "Considering": 5126,
      "OFFENCES": 5127,
      "Bhonri": 5128,
      "Dhok": 5129,
      "fourteen": 5130,
      ".’": 5131,
      "325": 5132,
      "Allah": 5133,
      "Che": 5134,
      "Dish": 5135,
      "Fine": 5136,
      "Family": 5137,
      "Giv": 5138,
      "Hist": 5139,
      "IG": 5140,
      "Kish": 5141,
      "Kash": 5142,
      "Labour": 5143,
      "Nal": 5144,
      "OTH": 5145,
      "Pending": 5146,
      "Raw": 5147,
      "Sq": 5148,
      "UCO": 5149,
      "big": 5150,
      "best": 5151,
      "crow": 5152,
      "hy": 5153,
      "ibility": 5154,
      "net": 5155,
      "oke": 5156,
      "rs": 5157,
      "sive": 5158,
      "ula": 5159,
      "voluntary": 5160,
      "wind": 5161,
      "ze": 5162,
      "thought": 5163,
      "onus": 5164,
      "online": 5165,
      "indirectly": 5166,
      "ineness": 5167,
      "orious": 5168,
      "remitted": 5169,
      "repu": 5170,
      "alt": 5171,
      "itable": 5172,
      "espe": 5173,
      "arh": 5174,
      "outh": 5175,
      "cel": 5176,
      "beating": 5177,
      "leaving": 5178,
      "stick": 5179,
      "defe": 5180,
      "hement": 5181,
      "icity": 5182,
      "proble": 5183,
      "apse": 5184,
      "apparent": 5185,
      "antly": 5186,
      "existed": 5187,
      "vehement": 5188,
      "urking": 5189,
      "acks": 5190,
      "irrelevant": 5191,
      "uddin": 5192,
      "discard": 5193,
      "plom": 5194,
      "earning": 5195,
      "ishal": 5196,
      "assaulted": 5197,
      "obstruct": 5198,
      "formed": 5199,
      "Statements": 5200,
      "grand": 5201,
      "firing": 5202,
      "computing": 5203,
      "events": 5204,
      "ptacle": 5205,
      "147": 5206,
      "PW4": 5207,
      "PWs": 5208,
      "inval": 5209,
      "trials": 5210,
      "specially": 5211,
      "relinqu": 5212,
      "executive": 5213,
      "170": 5214,
      "Deed": 5215,
      "tenant": 5216,
      "Suc": 5217,
      "Command": 5218,
      "stop": 5219,
      "ensive": 5220,
      "spa": 5221,
      "furtherance": 5222,
      "circul": 5223,
      "receptacle": 5224,
      "seeks": 5225,
      "maintained": 5226,
      "Associ": 5227,
      "acquainted": 5228,
      "classes": 5229,
      "corporate": 5230,
      "commissioning": 5231,
      "292": 5232,
      "suring": 5233,
      "summoning": 5234,
      "refusal": 5235,
      "refusing": 5236,
      "1974": 5237,
      "eping": 5238,
      "1959": 5239,
      "elam": 5240,
      "satisfactory": 5241,
      "locker": 5242,
      "371": 5243,
      "Post": 5244,
      "1983": 5245,
      "4702": 5246,
      "delivers": 5247,
      "Puri": 5248,
      "injured": 5249,
      "promissory": 5250,
      "borrower": 5251,
      "latter": 5252,
      "suffers": 5253,
      "Mode": 5254,
      "revisional": 5255,
      "1961": 5256,
      "belonged": 5257,
      "appointments": 5258,
      "clothes": 5259,
      "Registration": 5260,
      "visory": 5261,
      "larger": 5262,
      "removed": 5263,
      "continuance": 5264,
      "neglect": 5265,
      "demands": 5266,
      "signs": 5267,
      "conceals": 5268,
      "phone": 5269,
      "administration": 5270,
      "alternative": 5271,
      "habitu": 5272,
      "sanctioned": 5273,
      "territories": 5274,
      "expressions": 5275,
      "safety": 5276,
      "Arbitrator": 5277,
      "Neelam": 5278,
      "modification": 5279,
      "successor": 5280,
      "fraudulent": 5281,
      "strictly": 5282,
      "genuineness": 5283,
      "sustainable": 5284,
      "repeated": 5285,
      "Informant": 5286,
      "recommendation": 5287,
      "fundamental": 5288,
      "quarter": 5289,
      "Gujar": 5290,
      "donor": 5291,
      "weapons": 5292,
      "adjudication": 5293,
      "fifteen": 5294,
      "delegation": 5295,
      "source": 5296,
      "corresponding": 5297,
      "impression": 5298,
      "criteria": 5299,
      "clerk": 5300,
      "Reservation": 5301,
      "Similarly": 5302,
      "touching": 5303,
      "Certificate": 5304,
      "Sultan": 5305,
      "frastructure": 5306,
      "Dishon": 5307,
      "History": 5308,
      "Nalin": 5309,
      "especially": 5310,
      "Gujarat": 5311,
      ")]": 5312,
      "230": 5313,
      "500": 5314,
      "Alla": 5315,
      "Char": 5316,
      "FB": 5317,
      "Final": 5318,
      "Gup": 5319,
      "Just": 5320,
      "Jai": 5321,
      "Ke": 5322,
      "Ku": 5323,
      "Li": 5324,
      "Nath": 5325,
      "Naz": 5326,
      "NHA": 5327,
      "Pol": 5328,
      "Pach": 5329,
      "Soc": 5330,
      "Ter": 5331,
      "Tru": 5332,
      "Tra": 5333,
      "UT": 5334,
      "Ve": 5335,
      "VII": 5336,
      "VIII": 5337,
      "Wrong": 5338,
      "ax": 5339,
      "bad": 5340,
      "bted": 5341,
      "drop": 5342,
      "fault": 5343,
      "gree": 5344,
      "greg": 5345,
      "hra": 5346,
      "hire": 5347,
      "ped": 5348,
      "pour": 5349,
      "squ": 5350,
      "tle": 5351,
      "uished": 5352,
      "vag": 5353,
      "wa": 5354,
      "xious": 5355,
      "…..": 5356,
      "throw": 5357,
      "ink": 5358,
      "ination": 5359,
      "inath": 5360,
      "encing": 5361,
      "ater": 5362,
      "recent": 5363,
      "asthan": 5364,
      "items": 5365,
      "arose": 5366,
      "andra": 5367,
      "beat": 5368,
      "chain": 5369,
      "sue": 5370,
      "formity": 5371,
      "deter": 5372,
      "depose": 5373,
      "degree": 5374,
      "undue": 5375,
      "unnecessary": 5376,
      "unreliable": 5377,
      "pecu": 5378,
      "imprison": 5379,
      "improbable": 5380,
      "conver": 5381,
      "expl": 5382,
      "comb": 5383,
      "lack": 5384,
      "adre": 5385,
      "liar": 5386,
      "ligh": 5387,
      "resort": 5388,
      "acre": 5389,
      "irregularity": 5390,
      "trave": 5391,
      "trading": 5392,
      "endanger": 5393,
      "cash": 5394,
      "parcel": 5395,
      "Inst": 5396,
      "1922": 5397,
      "disobedience": 5398,
      "intel": 5399,
      "clim": 5400,
      "miscarri": 5401,
      "affixed": 5402,
      "mittedly": 5403,
      "extension": 5404,
      "obscene": 5405,
      "neigh": 5406,
      "eff": 5407,
      "opposed": 5408,
      "grat": 5409,
      "mony": 5410,
      "board": 5411,
      "Except": 5412,
      "141": 5413,
      "Judicature": 5414,
      "harbour": 5415,
      "152": 5416,
      "goes": 5417,
      "attor": 5418,
      "Review": 5419,
      "Complain": 5420,
      "spouse": 5421,
      "intox": 5422,
      "constable": 5423,
      "Thousand": 5424,
      "lost": 5425,
      "303": 5426,
      "Once": 5427,
      "clarified": 5428,
      "transfere": 5429,
      "Admittedly": 5430,
      "revocation": 5431,
      "necessarily": 5432,
      "356": 5433,
      "constructions": 5434,
      "deny": 5435,
      "………………": 5436,
      "ORDER": 5437,
      "postpon": 5438,
      "Bengal": 5439,
      "deliber": 5440,
      "ultimate": 5441,
      "representatives": 5442,
      "equity": 5443,
      "prevented": 5444,
      "versy": 5445,
      "Moga": 5446,
      "acceptable": 5447,
      "newspa": 5448,
      "highly": 5449,
      "Rajasthan": 5450,
      "cluding": 5451,
      "selling": 5452,
      "little": 5453,
      "carefully": 5454,
      "cancelled": 5455,
      "habad": 5456,
      "substanti": 5457,
      "Council": 5458,
      "injure": 5459,
      "interpreted": 5460,
      "eyewitness": 5461,
      "revealed": 5462,
      "exclusive": 5463,
      "responsibility": 5464,
      "appreciate": 5465,
      "papers": 5466,
      "strial": 5467,
      "bringing": 5468,
      "drink": 5469,
      "insofar": 5470,
      "reversed": 5471,
      "analy": 5472,
      "meritorious": 5473,
      "obtains": 5474,
      "maintainable": 5475,
      "Shako": 5476,
      "Road": 5477,
      "logy": 5478,
      "distinct": 5479,
      "distinction": 5480,
      "BCCL": 5481,
      "International": 5482,
      "preceding": 5483,
      "absconded": 5484,
      "controversy": 5485,
      "convenience": 5486,
      "entrusted": 5487,
      "erroneous": 5488,
      "Environmental": 5489,
      "annexed": 5490,
      "Badlu": 5491,
      "Thak": 5492,
      "eighteen": 5493,
      "affairs": 5494,
      "Education": 5495,
      "Torry": 5496,
      "terrorist": 5497,
      "Dhokne": 5498,
      "Rawat": 5499,
      "vehemently": 5500,
      "Nalininath": 5501,
      "Allahabad": 5502,
      "Gupta": 5503,
      "NHAI": 5504,
      "Pachmarhi": 5505,
      "peculiar": 5506,
      "miscarriage": 5507,
      "Shakoor": 5508,
      "310": 5509,
      "317": 5510,
      "332": 5511,
      "6166": 5512,
      "72": 5513,
      "757": 5514,
      "89": 5515,
      "832": 5516,
      "Aff": 5517,
      "Ce": 5518,
      "Cred": 5519,
      "Mand": 5520,
      "Pla": 5521,
      "Plot": 5522,
      "PGI": 5523,
      "Qu": 5524,
      "Sob": 5525,
      "Sav": 5526,
      "Shar": 5527,
      "Using": 5528,
      "Vs": 5529,
      "XI": 5530,
      "bone": 5531,
      "ds": 5532,
      "economic": 5533,
      "fare": 5534,
      "iat": 5535,
      "iently": 5536,
      "jit": 5537,
      "jun": 5538,
      "mn": 5539,
      "osen": 5540,
      "ras": 5541,
      "scre": 5542,
      "yap": 5543,
      "inous": 5544,
      "inside": 5545,
      "inivas": 5546,
      "oring": 5547,
      "enum": 5548,
      "ensuring": 5549,
      "atal": 5550,
      "rehab": 5551,
      "alpur": 5552,
      "tow": 5553,
      "itary": 5554,
      "ctur": 5555,
      "ros": 5556,
      "storage": 5557,
      "depart": 5558,
      "agrees": 5559,
      "experi": 5560,
      "amend": 5561,
      "208": 5562,
      "verse": 5563,
      "owing": 5564,
      "pardon": 5565,
      "haar": 5566,
      "1906": 5567,
      "discover": 5568,
      "early": 5569,
      "ishment": 5570,
      "outset": 5571,
      "dupl": 5572,
      "parte": 5573,
      "instigation": 5574,
      "coerc": 5575,
      "assign": 5576,
      "illustr": 5577,
      "exting": 5578,
      "obli": 5579,
      "formula": 5580,
      "raising": 5581,
      "bling": 5582,
      "129": 5583,
      "umn": 5584,
      "speed": 5585,
      "matic": 5586,
      "116": 5587,
      "Express": 5588,
      "destruction": 5589,
      "143": 5590,
      "149": 5591,
      "...............": 5592,
      "SCR": 5593,
      "Articles": 5594,
      "Child": 5595,
      "153": 5596,
      "155": 5597,
      "arrange": 5598,
      "Rece": 5599,
      "Contract": 5600,
      "Consumer": 5601,
      "span": 5602,
      "spir": 5603,
      "space": 5604,
      "look": 5605,
      "309": 5606,
      "324": 5607,
      "aksha": 5608,
      "Form": 5609,
      "Forces": 5610,
      "229": 5611,
      "maintaining": 5612,
      "Acquisition": 5613,
      "retired": 5614,
      "supported": 5615,
      "supplement": 5616,
      "247": 5617,
      "353": 5618,
      "357": 5619,
      "complainants": 5620,
      "cience": 5621,
      "ITR": 5622,
      "University": 5623,
      "else": 5624,
      "throughout": 5625,
      "memo": 5626,
      "located": 5627,
      "473": 5628,
      "471906": 5629,
      "applicability": 5630,
      "simply": 5631,
      "merger": 5632,
      "ultimately": 5633,
      "ISTR": 5634,
      "equally": 5635,
      "alongwith": 5636,
      "prescribe": 5637,
      "finality": 5638,
      "mortgagee": 5639,
      "threatens": 5640,
      "eyes": 5641,
      "needs": 5642,
      "pleads": 5643,
      "constitutes": 5644,
      "Chandra": 5645,
      "negligent": 5646,
      "holders": 5647,
      "counterfeiting": 5648,
      "exclusion": 5649,
      "ndicate": 5650,
      "safely": 5651,
      "Neg": 5652,
      "icitor": 5653,
      "measure": 5654,
      "physically": 5655,
      "confirming": 5656,
      "arik": 5657,
      "kerosen": 5658,
      "Suraksha": 5659,
      "projects": 5660,
      "Naval": 5661,
      "Nagarik": 5662,
      "CWJC": 5663,
      "Aadhaar": 5664,
      "compared": 5665,
      "professional": 5666,
      "investments": 5667,
      "sources": 5668,
      "disclosure": 5669,
      "acknowledgment": 5670,
      "levy": 5671,
      "happened": 5672,
      "explosive": 5673,
      "FACT": 5674,
      "weeks": 5675,
      "innocent": 5676,
      "psychiat": 5677,
      "Srinivas": 5678,
      "Durvin": 5679,
      "Lordship": 5680,
      "staircase": 5681,
      "vehicle": 5682,
      "bushes": 5683,
      "Succession": 5684,
      "Justice": 5685,
      "Polic": 5686,
      "lighted": 5687,
      "832471906": 5688,
      "Credit": 5689,
      "rehabil": 5690,
      "kerosene": 5691,
      ")—": 5692,
      "215": 5693,
      "232": 5694,
      "504": 5695,
      "88": 5696,
      "BN": 5697,
      "Cap": 5698,
      "Card": 5699,
      "Circu": 5700,
      "Cast": 5701,
      "DO": 5702,
      "Dhar": 5703,
      "Estate": 5704,
      "Electr": 5705,
      "False": 5706,
      "Hear": 5707,
      "INT": 5708,
      "IAL": 5709,
      "Kidnapping": 5710,
      "LPA": 5711,
      "NA": 5712,
      "Num": 5713,
      "OD": 5714,
      "Pay": 5715,
      "Presiding": 5716,
      "RW": 5717,
      "Ren": 5718,
      "RFB": 5719,
      "Sol": 5720,
      "SIS": 5721,
      "SING": 5722,
      "VID": 5723,
      "WP": 5724,
      "Wang": 5725,
      "Year": 5726,
      "barr": 5727,
      "eas": 5728,
      "fru": 5729,
      "gang": 5730,
      "iable": 5731,
      "ium": 5732,
      "ipt": 5733,
      "iries": 5734,
      "nine": 5735,
      "pain": 5736,
      "rash": 5737,
      "tory": 5738,
      "vary": 5739,
      "”).": 5740,
      "infer": 5741,
      "often": 5742,
      "enforced": 5743,
      "asi": 5744,
      "esty": 5745,
      "eswar": 5746,
      "ctitious": 5747,
      "cease": 5748,
      "select": 5749,
      "forts": 5750,
      "stren": 5751,
      "imposition": 5752,
      "concisely": 5753,
      "alla": 5754,
      "absent": 5755,
      "agged": 5756,
      "notar": 5757,
      "ample": 5758,
      "ambit": 5759,
      "lihood": 5760,
      "ured": 5761,
      "ifies": 5762,
      "understanding": 5763,
      "personation": 5764,
      "history": 5765,
      "1948": 5766,
      "therewith": 5767,
      "usage": 5768,
      "partial": 5769,
      "10th": 5770,
      "ruption": 5771,
      "pressure": 5772,
      "factor": 5773,
      "jection": 5774,
      "interven": 5775,
      "Append": 5776,
      "gnant": 5777,
      "bodies": 5778,
      "113": 5779,
      "140": 5780,
      "craft": 5781,
      "186": 5782,
      "fulfil": 5783,
      "Army": 5784,
      "130": 5785,
      "13th": 5786,
      "157": 5787,
      "guidelines": 5788,
      "relations": 5789,
      "17th": 5790,
      "attended": 5791,
      "footing": 5792,
      "commod": 5793,
      "defraud": 5794,
      "lectual": 5795,
      "250": 5796,
      "pute": 5797,
      "identified": 5798,
      "30th": 5799,
      "venile": 5800,
      "justif": 5801,
      "223": 5802,
      "ignored": 5803,
      "opined": 5804,
      "opinions": 5805,
      "corrupt": 5806,
      "calling": 5807,
      "clearing": 5808,
      "survi": 5809,
      "389": 5810,
      "abetting": 5811,
      "denies": 5812,
      "mandates": 5813,
      "something": 5814,
      "specifying": 5815,
      "1986": 5816,
      "bench": 5817,
      "terminated": 5818,
      "PET": 5819,
      "shaw": 5820,
      "shade": 5821,
      "31st": 5822,
      "merch": 5823,
      "mortgages": 5824,
      "395": 5825,
      "CTION": 5826,
      "collection": 5827,
      "column": 5828,
      "licence": 5829,
      "462": 5830,
      "467": 5831,
      "accepting": 5832,
      "Assam": 5833,
      "highlighted": 5834,
      "visited": 5835,
      "continuing": 5836,
      "velu": 5837,
      "demanded": 5838,
      "publishes": 5839,
      "longer": 5840,
      "Execution": 5841,
      "returning": 5842,
      "answers": 5843,
      "involve": 5844,
      "situate": 5845,
      "designation": 5846,
      "submitting": 5847,
      "refunded": 5848,
      "intends": 5849,
      "airport": 5850,
      "withdrawal": 5851,
      "lessees": 5852,
      "valuation": 5853,
      "reveals": 5854,
      "reduction": 5855,
      "regularly": 5856,
      "recommended": 5857,
      "cognisance": 5858,
      "lateral": 5859,
      "akshmi": 5860,
      "Vijay": 5861,
      "MAG": 5862,
      "permitting": 5863,
      "abduction": 5864,
      "abducting": 5865,
      "subscri": 5866,
      "7708": 5867,
      "admissions": 5868,
      "contradict": 5869,
      "contradictions": 5870,
      "Engineering": 5871,
      "Nagar": 5872,
      "tributed": 5873,
      "adjustment": 5874,
      "allotted": 5875,
      "fabricated": 5876,
      "associated": 5877,
      "shots": 5878,
      "Joint": 5879,
      "Industrial": 5880,
      "Group": 5881,
      "comprising": 5882,
      "Administr": 5883,
      "integrity": 5884,
      "narrated": 5885,
      "PUBL": 5886,
      "Bhajan": 5887,
      "acknowledgement": 5888,
      "Clearance": 5889,
      "Two": 5890,
      "horse": 5891,
      "arayanji": 5892,
      "signatures": 5893,
      "OTHERS": 5894,
      "repudi": 5895,
      "Truck": 5896,
      "square": 5897,
      "intellectual": 5898,
      "attorney": 5899,
      "newspaper": 5900,
      "Children": 5901,
      "Neglig": 5902,
      "Policy": 5903,
      "Circular": 5904,
      "SINGH": 5905,
      "Wangvelu": 5906,
      "Appendix": 5907,
      "(‘": 5908,
      "(“": 5909,
      "/­": 5910,
      "447": 5911,
      "8th": 5912,
      "9371": 5913,
      "Amer": 5914,
      "BT": 5915,
      "Bri": 5916,
      "Cha": 5917,
      "Denn": 5918,
      "Keral": 5919,
      "My": 5920,
      "Mus": 5921,
      "Mak": 5922,
      "Master": 5923,
      "Op": 5924,
      "Prev": 5925,
      "Panch": 5926,
      "Rag": 5927,
      "Sex": 5928,
      "SBI": 5929,
      "Sik": 5930,
      "TC": 5931,
      "TY": 5932,
      "Tender": 5933,
      "URE": 5934,
      "Vishal": 5935,
      "Witness": 5936,
      "YA": 5937,
      "cun": 5938,
      "cli": 5939,
      "dent": 5940,
      "fas": 5941,
      "fatal": 5942,
      "gy": 5943,
      "hat": 5944,
      "hard": 5945,
      "iet": 5946,
      "job": 5947,
      "lite": 5948,
      "map": 5949,
      "mess": 5950,
      "mouth": 5951,
      "rap": 5952,
      "rish": 5953,
      "rail": 5954,
      "sort": 5955,
      "swe": 5956,
      "skill": 5957,
      "wami": 5958,
      "yer": 5959,
      "”)": 5960,
      "inference": 5961,
      "inspect": 5962,
      "inery": 5963,
      "erous": 5964,
      "anc": 5965,
      "ening": 5966,
      "enact": 5967,
      "environ": 5968,
      "attained": 5969,
      "rejection": 5970,
      "alji": 5971,
      "asing": 5972,
      "entially": 5973,
      "secret": 5974,
      "suant": 5975,
      "fortun": 5976,
      "strong": 5977,
      "deception": 5978,
      "ders": 5979,
      "unil": 5980,
      "noxious": 5981,
      "peach": 5982,
      "implement": 5983,
      "ican": 5984,
      "pertain": 5985,
      "illegally": 5986,
      "prog": 5987,
      "prospect": 5988,
      "ourselves": 5989,
      "idance": 5990,
      "notices": 5991,
      "exc": 5992,
      "exh": 5993,
      "rival": 5994,
      "velled": 5995,
      "206": 5996,
      "adulter": 5997,
      "accur": 5998,
      "accompany": 5999,
      "accompan": 6000,
      "ife": 6001,
      "train": 6002,
      "undergoing": 6003,
      "igarh": 6004,
      "quite": 6005,
      "tions": 6006,
      "viction": 6007,
      "cast": 6008,
      "diary": 6009,
      "diplom": 6010,
      "haz": 6011,
      "19th": 6012,
      "1919": 6013,
      "disposing": 6014,
      "disclosed": 6015,
      "discrimin": 6016,
      "Secur": 6017,
      "geon": 6018,
      "miscon": 6019,
      "misconduct": 6020,
      "emption": 6021,
      "foregoing": 6022,
      "played": 6023,
      "afresh": 6024,
      "partner": 6025,
      "presumed": 6026,
      "101": 6027,
      "ize": 6028,
      "extort": 6029,
      "factum": 6030,
      "raise": 6031,
      "blow": 6032,
      "124": 6033,
      "monition": 6034,
      "........................................": 6035,
      "ocal": 6036,
      "reasoned": 6037,
      "payments": 6038,
      "183": 6039,
      "1882": 6040,
      "presently": 6041,
      "moving": 6042,
      "131": 6043,
      "guidance": 6044,
      "163": 6045,
      "attack": 6046,
      "attesting": 6047,
      "describe": 6048,
      "past": 6049,
      "identify": 6050,
      "looked": 6051,
      "1994": 6052,
      "1999": 6053,
      "alleging": 6054,
      "produces": 6055,
      "products": 6056,
      "pendent": 6057,
      ".—(": 6058,
      "arresting": 6059,
      "transl": 6060,
      "Head": 6061,
      "ERATION": 6062,
      "fictitious": 6063,
      "245": 6064,
      "248": 6065,
      "263": 6066,
      "26th": 6067,
      "Princ": 6068,
      "minated": 6069,
      "certainly": 6070,
      "observing": 6071,
      "observation": 6072,
      "384": 6073,
      "reflect": 6074,
      "points": 6075,
      "construct": 6076,
      "constructed": 6077,
      "grievance": 6078,
      "1957": 6079,
      "advoc": 6080,
      "aja": 6081,
      "1987": 6082,
      "Constru": 6083,
      "operational": 6084,
      "communicate": 6085,
      "titled": 6086,
      "Clauses": 6087,
      "Lectur": 6088,
      "Paragraph": 6089,
      "1965": 6090,
      "closure": 6091,
      "performing": 6092,
      "renders": 6093,
      "severe": 6094,
      "killing": 6095,
      "ownership": 6096,
      "sheets": 6097,
      "seniority": 6098,
      "alteration": 6099,
      "initiation": 6100,
      "possessing": 6101,
      "constituting": 6102,
      "Chandigarh": 6103,
      "realization": 6104,
      "discrep": 6105,
      "arrive": 6106,
      "endorsed": 6107,
      "strang": 6108,
      "Harin": 6109,
      "categorically": 6110,
      "resides": 6111,
      "judicially": 6112,
      "reversing": 6113,
      "divisions": 6114,
      "vacant": 6115,
      "tempt": 6116,
      "dangerous": 6117,
      "alien": 6118,
      "avails": 6119,
      "religion": 6120,
      "running": 6121,
      "anjan": 6122,
      "sailors": 6123,
      "driver": 6124,
      "resulted": 6125,
      "Finance": 6126,
      "begin": 6127,
      "fifty": 6128,
      "investment": 6129,
      "inflict": 6130,
      "aneous": 6131,
      "disturbance": 6132,
      "figures": 6133,
      "prosecuted": 6134,
      "amenity": 6135,
      "Pursuant": 6136,
      "sugges": 6137,
      "demonstr": 6138,
      "SECI": 6139,
      "adjournment": 6140,
      "Revision": 6141,
      "trafficking": 6142,
      "disobeys": 6143,
      "usual": 6144,
      "teachers": 6145,
      "Legislature": 6146,
      "inserted": 6147,
      "machinery": 6148,
      "Kashyap": 6149,
      "habitually": 6150,
      "imprisoned": 6151,
      "gratification": 6152,
      "transferee": 6153,
      "town": 6154,
      "Receipt": 6155,
      "ISTRATE": 6156,
      "rehabilitation": 6157,
      "Number": 6158,
      "Solicitor": 6159,
      "PETITION": 6160,
      "MAGISTRATE": 6161,
      "Administrator": 6162,
      "Negligent": 6163,
      "American": 6164,
      "BTSC": 6165,
      "Dennis": 6166,
      "Kerala": 6167,
      "Makhan": 6168,
      "Sexual": 6169,
      "accompanied": 6170,
      "Security": 6171,
      "211": 6172,
      "213": 6173,
      "217": 6174,
      "315": 6175,
      "Award": 6176,
      "Bir": 6177,
      "Date": 6178,
      "Hy": 6179,
      "IBC": 6180,
      "Kol": 6181,
      "Ld": 6182,
      "Mint": 6183,
      "Nad": 6184,
      "Nates": 6185,
      "NCT": 6186,
      "Oil": 6187,
      "PERS": 6188,
      "QU": 6189,
      "SH": 6190,
      "ares": 6191,
      "bare": 6192,
      "bts": 6193,
      "cou": 6194,
      "dwell": 6195,
      "eign": 6196,
      "fle": 6197,
      "gire": 6198,
      "haps": 6199,
      "jac": 6200,
      "kat": 6201,
      "kidn": 6202,
      "leng": 6203,
      "mig": 6204,
      "marr": 6205,
      "master": 6206,
      "panch": 6207,
      "ram": 6208,
      "ufact": 6209,
      "viti": 6210,
      "wear": 6211,
      "wage": 6212,
      "wishes": 6213,
      "—\"": 6214,
      "’),": 6215,
      "ons": 6216,
      "inion": 6217,
      "inch": 6218,
      "ena": 6219,
      "reen": 6220,
      "resem": 6221,
      "resumption": 6222,
      "alarm": 6223,
      "toile": 6224,
      "asad": 6225,
      "itor": 6226,
      "ariness": 6227,
      "inger": 6228,
      "sus": 6229,
      "superintend": 6230,
      "levi": 6231,
      "levelled": 6232,
      "strate": 6233,
      "deep": 6234,
      "unreserved": 6235,
      "hect": 6236,
      "imen": 6237,
      "impeach": 6238,
      "perverse": 6239,
      "ilal": 6240,
      "ilst": 6241,
      "proposes": 6242,
      "idence": 6243,
      "abled": 6244,
      "shif": 6245,
      "agar": 6246,
      "tered": 6247,
      "exact": 6248,
      "exhibited": 6249,
      "river": 6250,
      "computed": 6251,
      "lady": 6252,
      "ada": 6253,
      "acid": 6254,
      "trying": 6255,
      "Theft": 6256,
      "quick": 6257,
      "tact": 6258,
      "die": 6259,
      "Intention": 6260,
      "191": 6261,
      "disting": 6262,
      "dispossessed": 6263,
      "distribution": 6264,
      "estim": 6265,
      "ultra": 6266,
      "ishing": 6267,
      "embank": 6268,
      "doer": 6269,
      "install": 6270,
      "tribunal": 6271,
      "cot": 6272,
      "purely": 6273,
      "Highways": 6274,
      "charging": 6275,
      "legs": 6276,
      "121": 6277,
      "128": 6278,
      "12th": 6279,
      "12292": 6280,
      "speaking": 6281,
      "tell": 6282,
      "contend": 6283,
      "petty": 6284,
      "manufact": 6285,
      "moment": 6286,
      "fulfilled": 6287,
      "Armed": 6288,
      "158": 6289,
      "Sanctuary": 6290,
      "Sush": 6291,
      "Recruitment": 6292,
      "suitable": 6293,
      "marlas": 6294,
      "spite": 6295,
      "constrain": 6296,
      "306": 6297,
      "307": 6298,
      "sales": 6299,
      "Only": 6300,
      "circumstance": 6301,
      "227": 6302,
      "Tribes": 6303,
      "transport": 6304,
      "23939": 6305,
      "24th": 6306,
      "approxim": 6307,
      "regarded": 6308,
      "complained": 6309,
      "Prof": 6310,
      "Prison": 6311,
      "worn": 6312,
      "passage": 6313,
      "reflected": 6314,
      "clusion": 6315,
      "advance": 6316,
      "374": 6317,
      "banker": 6318,
      "posted": 6319,
      "postal": 6320,
      "Mano": 6321,
      "meanwhile": 6322,
      "Submissions": 6323,
      "operating": 6324,
      "taxation": 6325,
      "taxable": 6326,
      "join": 6327,
      "vested": 6328,
      "versity": 6329,
      "borne": 6330,
      "464": 6331,
      "confidence": 6332,
      "admittedly": 6333,
      "Rajgire": 6334,
      "Prosecutors": 6335,
      "arbitrariness": 6336,
      "bids": 6337,
      "establishes": 6338,
      "primarily": 6339,
      "concealed": 6340,
      "designated": 6341,
      "altered": 6342,
      "Counter": 6343,
      "omissions": 6344,
      "END": 6345,
      "arriving": 6346,
      "LAC": 6347,
      "probability": 6348,
      "transfers": 6349,
      "occasioned": 6350,
      "similarly": 6351,
      "aulting": 6352,
      "sealed": 6353,
      "NCLAT": 6354,
      "Premium": 6355,
      "tton": 6356,
      "reverse": 6357,
      "institutions": 6358,
      "impact": 6359,
      "Misc": 6360,
      "subsist": 6361,
      "mutation": 6362,
      "mutiny": 6363,
      "quarrel": 6364,
      "Mukat": 6365,
      "Regulations": 6366,
      "destroy": 6367,
      "Marlas": 6368,
      "collusion": 6369,
      "omitted": 6370,
      "amongst": 6371,
      "asserted": 6372,
      "1872": 6373,
      "Although": 6374,
      "restraining": 6375,
      "figure": 6376,
      "procure": 6377,
      "amenities": 6378,
      "gunshots": 6379,
      "gesture": 6380,
      "demonstrate": 6381,
      "conveyed": 6382,
      "protect": 6383,
      "worthy": 6384,
      "scrutin": 6385,
      "wilfully": 6386,
      "dispense": 6387,
      "evaluation": 6388,
      "discipline": 6389,
      "compounded": 6390,
      "oulder": 6391,
      "repealed": 6392,
      "uploaded": 6393,
      "consultation": 6394,
      "Standing": 6395,
      "influence": 6396,
      "Kishan": 6397,
      "problem": 6398,
      "discarded": 6399,
      "relinquishment": 6400,
      "Nazul": 6401,
      "Territ": 6402,
      "Veer": 6403,
      "effic": 6404,
      "Complainant": 6405,
      "Thakur": 6406,
      "Ques": 6407,
      "enumerated": 6408,
      "experience": 6409,
      "duplicate": 6410,
      "coercion": 6411,
      "Castes": 6412,
      "Heard": 6413,
      "barracks": 6414,
      "streng": 6415,
      "misconception": 6416,
      "Principal": 6417,
      "Construction": 6418,
      "PERSON": 6419,
      "length": 6420,
      "migr": 6421,
      "toilets": 6422,
      "embankment": 6423,
      "210": 6424,
      "318": 6425,
      "330": 6426,
      "415": 6427,
      "409": 6428,
      "6th": 6429,
      "Apart": 6430,
      "CB": 6431,
      "Cut": 6432,
      "Cases": 6433,
      "DI": 6434,
      "FE": 6435,
      "FT": 6436,
      "GO": 6437,
      "Ident": 6438,
      "Jur": 6439,
      "KA": 6440,
      "Kam": 6441,
      "Kanwar": 6442,
      "Mun": 6443,
      "Mort": 6444,
      "Naid": 6445,
      "Pand": 6446,
      "Pank": 6447,
      "Rav": 6448,
      "Ranjan": 6449,
      "SY": 6450,
      "Same": 6451,
      "SID": 6452,
      "Saksh": 6453,
      "School": 6454,
      "TS": 6455,
      "UID": 6456,
      "Va": 6457,
      "Wad": 6458,
      "West": 6459,
      "Wild": 6460,
      "Yds": 6461,
      "ainst": 6462,
      "bul": 6463,
      "bought": 6464,
      "baj": 6465,
      "batch": 6466,
      "cated": 6467,
      "eper": 6468,
      "eight": 6469,
      "gl": 6470,
      "game": 6471,
      "hes": 6472,
      "ian": 6473,
      "lon": 6474,
      "lter": 6475,
      "lord": 6476,
      "lish": 6477,
      "lurking": 6478,
      "merc": 6479,
      "ni": 6480,
      "nath": 6481,
      "pho": 6482,
      "rare": 6483,
      "sl": 6484,
      "sic": 6485,
      "sil": 6486,
      "sla": 6487,
      "sending": 6488,
      "skilled": 6489,
      "sworn": 6490,
      "tam": 6491,
      "tary": 6492,
      "tack": 6493,
      "ub": 6494,
      "uc": 6495,
      "upro": 6496,
      "yal": 6497,
      "ylon": 6498,
      "zed": 6499,
      "inas": 6500,
      "insur": 6501,
      "anan": 6502,
      "anies": 6503,
      "enough": 6504,
      "atic": 6505,
      "isable": 6506,
      "rew": 6507,
      "rela": 6508,
      "reinst": 6509,
      "recourse": 6510,
      "alakshmi": 6511,
      "top": 6512,
      "tool": 6513,
      "essees": 6514,
      "ara": 6515,
      "arai": 6516,
      "arms": 6517,
      "suspect": 6518,
      "lections": 6519,
      "lets": 6520,
      "level": 6521,
      "stre": 6522,
      "dem": 6523,
      "detain": 6524,
      "mentally": 6525,
      "whilst": 6526,
      "thatA": 6527,
      "unknown": 6528,
      "unnatural": 6529,
      "unamended": 6530,
      "unexpired": 6531,
      "heinous": 6532,
      "imm": 6533,
      "image": 6534,
      "icul": 6535,
      "conting": 6536,
      "convey": 6537,
      "prost": 6538,
      "provi": 6539,
      "apsed": 6540,
      "apore": 6541,
      "apidated": 6542,
      "idhan": 6543,
      "abilities": 6544,
      "cult": 6545,
      "shed": 6546,
      "agmatic": 6547,
      "antic": 6548,
      "example": 6549,
      "205": 6550,
      "ades": 6551,
      "resist": 6552,
      "resistance": 6553,
      "resolution": 6554,
      "verbal": 6555,
      "accommod": 6556,
      "ird": 6557,
      "irrespective": 6558,
      "pragmatic": 6559,
      "endar": 6560,
      "tioned": 6561,
      "active": 6562,
      "parked": 6563,
      "Insured": 6564,
      "Infrastructure": 6565,
      "discharging": 6566,
      "ests": 6567,
      "plus": 6568,
      "itions": 6569,
      "itionally": 6570,
      "mise": 6571,
      "afide": 6572,
      "affr": 6573,
      "affix": 6574,
      "pregnant": 6575,
      "fee": 6576,
      "feet": 6577,
      "102": 6578,
      "107": 6579,
      "pressing": 6580,
      "weight": 6581,
      "ousing": 6582,
      "decides": 6583,
      "whoever": 6584,
      "series": 6585,
      "purported": 6586,
      "efforts": 6587,
      "hereafter": 6588,
      "grati": 6589,
      "Prohibition": 6590,
      ".............": 6591,
      "wherever": 6592,
      "thorough": 6593,
      "considerations": 6594,
      "crore": 6595,
      "manager": 6596,
      "harbours": 6597,
      "harmony": 6598,
      "landowners": 6599,
      "landlord": 6600,
      "Arms": 6601,
      "Singapore": 6602,
      "restore": 6603,
      "specimen": 6604,
      "160": 6605,
      "attending": 6606,
      "Deep": 6607,
      "Supra": 6608,
      "Record": 6609,
      "Reliance": 6610,
      "Consort": 6611,
      "mart": 6612,
      "ensic": 6613,
      "spent": 6614,
      "251": 6615,
      "25th": 6616,
      "looking": 6617,
      "vency": 6618,
      "contra": 6619,
      "shelter": 6620,
      "justification": 6621,
      "Online": 6622,
      "clarification": 6623,
      "transmitted": 6624,
      "Accoun": 6625,
      "servants": 6626,
      "Adjudicating": 6627,
      "Offence": 6628,
      "Office": 6629,
      "declaring": 6630,
      "274": 6631,
      "262": 6632,
      "Prasad": 6633,
      "corre": 6634,
      "29th": 6635,
      "atium": 6636,
      "solvency": 6637,
      "solatium": 6638,
      "surrender": 6639,
      "effective": 6640,
      "pointing": 6641,
      "denial": 6642,
      "ATTA": 6643,
      "creating": 6644,
      "lock": 6645,
      "cars": 6646,
      "inception": 6647,
      "prevail": 6648,
      "monetary": 6649,
      "taxed": 6650,
      "depositing": 6651,
      "Attempt": 6652,
      "Against": 6653,
      "prescribes": 6654,
      "Modi": 6655,
      "461": 6656,
      "COMM": 6657,
      "COWI": 6658,
      "accepts": 6659,
      "1963": 6660,
      "violative": 6661,
      "anging": 6662,
      "Registry": 6663,
      "Additionally": 6664,
      "confli": 6665,
      "Madras": 6666,
      "changes": 6667,
      "Directors": 6668,
      "delivering": 6669,
      "syndicate": 6670,
      "establishing": 6671,
      "seller": 6672,
      "creditors": 6673,
      "affidavits": 6674,
      "Persons": 6675,
      "Companies": 6676,
      "depends": 6677,
      "confines": 6678,
      "confining": 6679,
      "Simalt": 6680,
      "Lalu": 6681,
      "conspic": 6682,
      "adopting": 6683,
      "Notice": 6684,
      "reducing": 6685,
      "safeguard": 6686,
      "stridhan": 6687,
      "English": 6688,
      "Hari": 6689,
      "ickshaw": 6690,
      "spective": 6691,
      "welfare": 6692,
      "Ambaj": 6693,
      "ogai": 6694,
      "RISON": 6695,
      "subsisting": 6696,
      "normalization": 6697,
      "Minister": 6698,
      "sample": 6699,
      "corroboration": 6700,
      "threatening": 6701,
      "Guidelines": 6702,
      "affirmation": 6703,
      "expeditious": 6704,
      "individuals": 6705,
      "Docu": 6706,
      "regulating": 6707,
      "Bachhan": 6708,
      "bouring": 6709,
      "delegated": 6710,
      "collapse": 6711,
      "deserves": 6712,
      "perquisite": 6713,
      "inflicted": 6714,
      "averments": 6715,
      "garh": 6716,
      "Design": 6717,
      "Sudha": 6718,
      "procured": 6719,
      "livelihood": 6720,
      "branches": 6721,
      "Bhagwan": 6722,
      "CONSID": 6723,
      "baneswar": 6724,
      "dilapidated": 6725,
      "smaller": 6726,
      "scrutiny": 6727,
      "Defendant": 6728,
      "4277": 6729,
      "HUF": 6730,
      "Letter": 6731,
      "schedule": 6732,
      "cellaneous": 6733,
      "prudent": 6734,
      "earnest": 6735,
      "Sanjay": 6736,
      "PART": 6737,
      "mobile": 6738,
      "speaks": 6739,
      "Bhubaneswar": 6740,
      "Giving": 6741,
      "intoxication": 6742,
      "Sobran": 6743,
      "Sharma": 6744,
      "psychiatr": 6745,
      "BNSS": 6746,
      "corruptly": 6747,
      "Prevention": 6748,
      "Sikandra": 6749,
      "client": 6750,
      "enactment": 6751,
      "advocates": 6752,
      "Lecturers": 6753,
      "discrepancies": 6754,
      "Natesan": 6755,
      "superintendence": 6756,
      "hectares": 6757,
      "Sushma": 6758,
      "Naidu": 6759,
      "Pankaj": 6760,
      "SYST": 6761,
      "Sakshya": 6762,
      "Vaish": 6763,
      "bullet": 6764,
      "photo": 6765,
      "inasmuch": 6766,
      "relax": 6767,
      "cultiv": 6768,
      "affray": 6769,
      "gratia": 6770,
      "Consortium": 6771,
      "ATTACH": 6772,
      "Simaltalla": 6773,
      "Ambajogai": 6774,
      "CONSIDERATION": 6775,
      "214": 6776,
      "218": 6777,
      "312": 6778,
      "336": 6779,
      "337": 6780,
      "405": 6781,
      "6351": 6782,
      "898": 6783,
      "8245": 6784,
      "AB": 6785,
      "AF": 6786,
      "Aj": 6787,
      "Bur": 6788,
      "Baksh": 6789,
      "Citiz": 6790,
      "Daul": 6791,
      "EE": 6792,
      "EPC": 6793,
      "EVID": 6794,
      "Fif": 6795,
      "Gvar": 6796,
      "HT": 6797,
      "Hab": 6798,
      "Home": 6799,
      "Jam": 6800,
      "KU": 6801,
      "Ko": 6802,
      "Ksh": 6803,
      "Kanal": 6804,
      "LHI": 6805,
      "Life": 6806,
      "MW": 6807,
      "Mere": 6808,
      "MAR": 6809,
      "ND": 6810,
      "Name": 6811,
      "Pal": 6812,
      "Press": 6813,
      "Plan": 6814,
      "Pvt": 6815,
      "Ref": 6816,
      "Rai": 6817,
      "Sal": 6818,
      "Sar": 6819,
      "Sent": 6820,
      "Sam": 6821,
      "Save": 6822,
      "UAL": 6823,
      "Vide": 6824,
      "Warrant": 6825,
      "You": 6826,
      "base": 6827,
      "cere": 6828,
      "dail": 6829,
      "elector": 6830,
      "finger": 6831,
      "gi": 6832,
      "gover": 6833,
      "hir": 6834,
      "hta": 6835,
      "hwan": 6836,
      "ipur": 6837,
      "kidnapping": 6838,
      "listed": 6839,
      "labour": 6840,
      "rational": 6841,
      "sac": 6842,
      "scan": 6843,
      "sick": 6844,
      "tent": 6845,
      "tested": 6846,
      "vind": 6847,
      "ware": 6848,
      "wants": 6849,
      "…”": 6850,
      "era": 6851,
      "anqu": 6852,
      "ende": 6853,
      "ism": 6854,
      "isen": 6855,
      "recruitment": 6856,
      "als": 6857,
      "toms": 6858,
      "ita": 6859,
      "arisen": 6860,
      "ental": 6861,
      "enters": 6862,
      "ste": 6863,
      "stone": 6864,
      "stra": 6865,
      "story": 6866,
      "stages": 6867,
      "start": 6868,
      "unreasonable": 6869,
      "undisputed": 6870,
      "uncle": 6871,
      "pecun": 6872,
      "imper": 6873,
      "improper": 6874,
      "imposes": 6875,
      "implead": 6876,
      "icious": 6877,
      "perversity": 6878,
      "ila": 6879,
      "concept": 6880,
      "consol": 6881,
      "conclude": 6882,
      "contribution": 6883,
      "conformity": 6884,
      "contact": 6885,
      "proced": 6886,
      "proposition": 6887,
      "prosecutor": 6888,
      "aggreg": 6889,
      "ternal": 6890,
      "expect": 6891,
      "extra": 6892,
      "exclude": 6893,
      "exhibits": 6894,
      "excluding": 6895,
      "external": 6896,
      "compl": 6897,
      "ambig": 6898,
      "libel": 6899,
      "urgent": 6900,
      "vereign": 6901,
      "access": 6902,
      "essentially": 6903,
      "quo": 6904,
      "quoted": 6905,
      "sovereign": 6906,
      "aust": 6907,
      "paras": 6908,
      "mitig": 6909,
      "hai": 6910,
      "disabled": 6911,
      "ulg": 6912,
      "pled": 6913,
      "Sett": 6914,
      "emp": 6915,
      "outstanding": 6916,
      "overcrow": 6917,
      "prejudicial": 6918,
      "keys": 6919,
      "108": 6920,
      "institute": 6921,
      "termed": 6922,
      "extre": 6923,
      "proves": 6924,
      "Acts": 6925,
      "formul": 6926,
      "purse": 6927,
      "purview": 6928,
      "internal": 6929,
      "nel": 6930,
      "Appoint": 6931,
      "mechan": 6932,
      "olved": 6933,
      "114": 6934,
      "herself": 6935,
      "isekar": 6936,
      "Exhibits": 6937,
      "desir": 6938,
      "files": 6939,
      "relev": 6940,
      "releasing": 6941,
      "Cotton": 6942,
      "..............................................;": 6943,
      "PW3": 6944,
      "PW8": 6945,
      "crimes": 6946,
      "185": 6947,
      "1897": 6948,
      "moder": 6949,
      "write": 6950,
      "137": 6951,
      "rests": 6952,
      "ipatory": 6953,
      "176": 6954,
      "Dec": 6955,
      "itude": 6956,
      "committee": 6957,
      "defam": 6958,
      "respects": 6959,
      "stopped": 6960,
      "254": 6961,
      "inclined": 6962,
      "sequence": 6963,
      "descriptions": 6964,
      "321": 6965,
      "INST": 6966,
      "alleges": 6967,
      "22nd": 6968,
      "ignity": 6969,
      "hereinbelow": 6970,
      "ientific": 6971,
      "acquire": 6972,
      "fract": 6973,
      "maternal": 6974,
      "350": 6975,
      "354": 6976,
      "handing": 6977,
      "Resistance": 6978,
      "founded": 6979,
      "foundation": 6980,
      "cleared": 6981,
      "surgeon": 6982,
      "effects": 6983,
      "2891": 6984,
      "1977": 6985,
      "entitlement": 6986,
      "347": 6987,
      "365": 6988,
      "368": 6989,
      "creation": 6990,
      "sufficiently": 6991,
      "379": 6992,
      "offenders": 6993,
      "1982": 6994,
      "Mang": 6995,
      "Manisekar": 6996,
      "carries": 6997,
      "meanings": 6998,
      "Subordinate": 6999,
      "lays": 7000,
      "prevents": 7001,
      "shortfall": 7002,
      "operated": 7003,
      "basic": 7004,
      "defines": 7005,
      "benefic": 7006,
      "equip": 7007,
      "equitable": 7008,
      "induced": 7009,
      "attendant": 7010,
      "boundary": 7011,
      "engross": 7012,
      "engages": 7013,
      "Motor": 7014,
      "468": 7015,
      "crucial": 7016,
      "CONT": 7017,
      "1964": 7018,
      "appointing": 7019,
      "keeps": 7020,
      "errors": 7021,
      "angabad": 7022,
      "searched": 7023,
      "backlog": 7024,
      "victims": 7025,
      "confis": 7026,
      "removes": 7027,
      "continuation": 7028,
      "doubtful": 7029,
      "Madho": 7030,
      "sanct": 7031,
      "distance": 7032,
      "distress": 7033,
      "answered": 7034,
      "bidding": 7035,
      "kills": 7036,
      "mala": 7037,
      "malicious": 7038,
      "careful": 7039,
      "stamps": 7040,
      "initiate": 7041,
      "possesses": 7042,
      "NOT": 7043,
      "fairly": 7044,
      "substantially": 7045,
      "realise": 7046,
      "deadly": 7047,
      "buildings": 7048,
      "values": 7049,
      "assaults": 7050,
      "reduce": 7051,
      "appreciated": 7052,
      "modify": 7053,
      "Bidders": 7054,
      "6635": 7055,
      "depositions": 7056,
      "purchasers": 7057,
      "DELHI": 7058,
      "occupier": 7059,
      "Juvenile": 7060,
      "Miscellaneous": 7061,
      "akshi": 7062,
      "independently": 7063,
      "permits": 7064,
      "contempt": 7065,
      "Shail": 7066,
      "funds": 7067,
      "Maharaja": 7068,
      "corroborate": 7069,
      "498A": 7070,
      "Without": 7071,
      "adjudicated": 7072,
      "introduced": 7073,
      "absconding": 7074,
      "Bachan": 7075,
      "remanded": 7076,
      "adjusted": 7077,
      "declares": 7078,
      "ciliation": 7079,
      "allotment": 7080,
      "excessive": 7081,
      "calculation": 7082,
      "calculated": 7083,
      "Despite": 7084,
      "Loan": 7085,
      "enjoy": 7086,
      "Andhra": 7087,
      "domain": 7088,
      "suggest": 7089,
      "rescued": 7090,
      "authenticity": 7091,
      "companies": 7092,
      "Satai": 7093,
      "forums": 7094,
      "uniform": 7095,
      "wilful": 7096,
      "persist": 7097,
      "quantum": 7098,
      "dispensed": 7099,
      "surveyor": 7100,
      "recital": 7101,
      "sunset": 7102,
      "sunrise": 7103,
      "improvement": 7104,
      "governing": 7105,
      "Fraudulent": 7106,
      "Verma": 7107,
      "amaluddin": 7108,
      "gravity": 7109,
      "Cheating": 7110,
      "invalid": 7111,
      "Dishonest": 7112,
      "Societ": 7113,
      "Wrongfully": 7114,
      "vague": 7115,
      "beaten": 7116,
      "explicit": 7117,
      "Savkar": 7118,
      "extinguished": 7119,
      "supplementary": 7120,
      "FACTUAL": 7121,
      "notarised": 7122,
      "justifiable": 7123,
      "merchant": 7124,
      "involvement": 7125,
      "PUBLIC": 7126,
      "Raghu": 7127,
      "fasten": 7128,
      "progress": 7129,
      "exhaust": 7130,
      "strangul": 7131,
      "Harinarayanji": 7132,
      "suggested": 7133,
      "dwelling": 7134,
      "kidnaps": 7135,
      "marry": 7136,
      "levied": 7137,
      "Intentional": 7138,
      "Kanwarlal": 7139,
      "Wadhwan": 7140,
      "hesitation": 7141,
      "accommodation": 7142,
      "martial": 7143,
      "conflict": 7144,
      "Documents": 7145,
      "Pankajakshi": 7146,
      "SYSTRA": 7147,
      "Vaishali": 7148,
      "ATTACHMENT": 7149,
      "8988": 7150,
      "Burden": 7151,
      "Daulalji": 7152,
      "EVIDENCE": 7153,
      "Gvarka": 7154,
      "daily": 7155,
      "governed": 7156,
      "endeavour": 7157,
      "pecuniary": 7158,
      "imperative": 7159,
      "Settlement": 7160,
      "overcrowding": 7161,
      "Manisekaran": 7162,
      "Societies": 7163,
      "Wadhwani": 7164,
      "%.": 7165,
      "):": 7166,
      ".––": 7167,
      "119": 7168,
      "216": 7169,
      "419": 7170,
      "542": 7171,
      "AI": 7172,
      "Area": 7173,
      "Based": 7174,
      "CU": 7175,
      "Cri": 7176,
      "Clar": 7177,
      "Cadre": 7178,
      "Di": 7179,
      "Electronic": 7180,
      "Gy": 7181,
      "Gur": 7182,
      "Her": 7183,
      "Khad": 7184,
      "Krish": 7185,
      "LR": 7186,
      "Lok": 7187,
      "Last": 7188,
      "Mal": 7189,
      "None": 7190,
      "Ph": 7191,
      "PER": 7192,
      "Right": 7193,
      "RBI": 7194,
      "Sir": 7195,
      "Sure": 7196,
      "Sunil": 7197,
      "Ur": 7198,
      "bath": 7199,
      "cat": 7200,
      "cket": 7201,
      "eed": 7202,
      "eco": 7203,
      "elim": 7204,
      "fence": 7205,
      "gru": 7206,
      "gross": 7207,
      "hun": 7208,
      "houses": 7209,
      "junction": 7210,
      "kumar": 7211,
      "kata": 7212,
      "khasra": 7213,
      "mor": 7214,
      "mid": 7215,
      "maps": 7216,
      "null": 7217,
      "oil": 7218,
      "sk": 7219,
      "spar": 7220,
      "school": 7221,
      "ti": 7222,
      "tank": 7223,
      "task": 7224,
      "uish": 7225,
      "uka": 7226,
      "wre": 7227,
      "wish": 7228,
      "waging": 7229,
      "”.—": 7230,
      "init": 7231,
      "inet": 7232,
      "inconsist": 7233,
      "incrimin": 7234,
      "ators": 7235,
      "attribut": 7236,
      "token": 7237,
      "asan": 7238,
      "assurance": 7239,
      "item": 7240,
      "aram": 7241,
      "army": 7242,
      "oubted": 7243,
      "chance": 7244,
      "changing": 7245,
      "forest": 7246,
      "rog": 7247,
      "ster": 7248,
      "stal": 7249,
      "stored": 7250,
      "dele": 7251,
      "devi": 7252,
      "deponent": 7253,
      "devol": 7254,
      "..........": 7255,
      "unci": 7256,
      "unequiv": 7257,
      "universities": 7258,
      "unfortun": 7259,
      "iming": 7260,
      "imag": 7261,
      "icks": 7262,
      "byA": 7263,
      "pertaining": 7264,
      "perspective": 7265,
      "omal": 7266,
      "propos": 7267,
      "proposing": 7268,
      "anyone": 7269,
      "abstain": 7270,
      "shi": 7271,
      "shar": 7272,
      "shoulder": 7273,
      "agencies": 7274,
      "notify": 7275,
      "rioting": 7276,
      "veer": 7277,
      "composition": 7278,
      "207": 7279,
      "thered": 7280,
      "lac": 7281,
      "resour": 7282,
      "urity": 7283,
      "veranda": 7284,
      "across": 7285,
      "ller": 7286,
      "sedu": 7287,
      "Their": 7288,
      "soil": 7289,
      "owk": 7290,
      "hisarai": 7291,
      "1949": 7292,
      "disallowed": 7293,
      "displeas": 7294,
      "Selection": 7295,
      "geance": 7296,
      "gets": 7297,
      "emo": 7298,
      "emphas": 7299,
      "dog": 7300,
      "afted": 7301,
      "prec": 7302,
      "precaution": 7303,
      "presuming": 7304,
      "keeper": 7305,
      "109": 7306,
      "cogent": 7307,
      "size": 7308,
      "pression": 7309,
      "izing": 7310,
      "weigh": 7311,
      "jewel": 7312,
      "interval": 7313,
      "ceded": 7314,
      "hereunder": 7315,
      "123": 7316,
      "boy": 7317,
      "appealed": 7318,
      "match": 7319,
      "118": 7320,
      "computation": 7321,
      "Proclamation": 7322,
      "Provision": 7323,
      "145": 7324,
      "tel": 7325,
      "techn": 7326,
      "regional": 7327,
      "examinations": 7328,
      "invested": 7329,
      "180": 7330,
      "182": 7331,
      "1898": 7332,
      "writes": 7333,
      "Arrest": 7334,
      "Chall": 7335,
      "Chowk": 7336,
      "guide": 7337,
      "chargeable": 7338,
      "iplier": 7339,
      "168": 7340,
      "169": 7341,
      "useful": 7342,
      "executes": 7343,
      "178": 7344,
      "medic": 7345,
      "attle": 7346,
      "Dead": 7347,
      "Defin": 7348,
      "commitment": 7349,
      "tenure": 7350,
      "informs": 7351,
      "commutation": 7352,
      "priv": 7353,
      "host": 7354,
      "258": 7355,
      "259": 7356,
      "304": 7357,
      "investigated": 7358,
      "household": 7359,
      "329": 7360,
      "vengeance": 7361,
      "product": 7362,
      "SLR": 7363,
      "warranted": 7364,
      "222": 7365,
      "SLPR": 7366,
      "transmission": 7367,
      "hereinabove": 7368,
      "236": 7369,
      "23rd": 7370,
      "upto": 7371,
      "uphold": 7372,
      "Advisory": 7373,
      "fires": 7374,
      "240": 7375,
      "242": 7376,
      "/-,": 7377,
      "276": 7378,
      "260": 7379,
      "269": 7380,
      "2653": 7381,
      "Printing": 7382,
      "Centre": 7383,
      "intentional": 7384,
      "ITD": 7385,
      "ITY": 7386,
      "385": 7387,
      "388": 7388,
      "refuse": 7389,
      "refrain": 7390,
      "energy": 7391,
      "1978": 7392,
      "IONS": 7393,
      "undai": 7394,
      "undoubted": 7395,
      "Unless": 7396,
      "processed": 7397,
      "343": 7398,
      "creates": 7399,
      "contractual": 7400,
      "memory": 7401,
      "aji": 7402,
      "474": 7403,
      "applicants": 7404,
      "appropriates": 7405,
      "draws": 7406,
      "prevention": 7407,
      "PECT": 7408,
      "communicated": 7409,
      "wrongly": 7410,
      "representations": 7411,
      "oti": 7412,
      "feiting": 7413,
      "Lease": 7414,
      "incidental": 7415,
      "worked": 7416,
      "borrow": 7417,
      "engra": 7418,
      "engaging": 7419,
      "sufferer": 7420,
      "doubts": 7421,
      "Firstly": 7422,
      "entirely": 7423,
      "entirety": 7424,
      "1966": 7425,
      "1968": 7426,
      "Taking": 7427,
      "competence": 7428,
      "credible": 7429,
      "Regard": 7430,
      "opening": 7431,
      "INGS": 7432,
      "Jails": 7433,
      "vels": 7434,
      "demanding": 7435,
      "returns": 7436,
      "Khatta": 7437,
      "convicting": 7438,
      "cheated": 7439,
      "cheques": 7440,
      "treating": 7441,
      "truly": 7442,
      "pleadings": 7443,
      "bargain": 7444,
      "portions": 7445,
      "Ahmad": 7446,
      "6886": 7447,
      "6887": 7448,
      "compelling": 7449,
      "…………………………": 7450,
      "………………………………": 7451,
      "string": 7452,
      "Harbouring": 7453,
      "unlawfully": 7454,
      "eventually": 7455,
      "Premises": 7456,
      "strict": 7457,
      "inquiries": 7458,
      "judicata": 7459,
      "exceptional": 7460,
      "renewed": 7461,
      "MACT": 7462,
      "journey": 7463,
      "abducted": 7464,
      "Mohd": 7465,
      "Shah": 7466,
      "definitions": 7467,
      "spoken": 7468,
      "corroborated": 7469,
      "Lakh": 7470,
      "Lakhisarai": 7471,
      "wanted": 7472,
      "xxx": 7473,
      "suspicious": 7474,
      "driving": 7475,
      "doctors": 7476,
      "376D": 7477,
      "deceived": 7478,
      "comparison": 7479,
      "destroyed": 7480,
      "guaranteed": 7481,
      "incorpor": 7482,
      "Govt": 7483,
      "TRIAL": 7484,
      "adjourned": 7485,
      "preferably": 7486,
      "participate": 7487,
      "supervision": 7488,
      "workmanship": 7489,
      "calculating": 7490,
      "Calendar": 7491,
      "Issue": 7492,
      "fabricating": 7493,
      "huge": 7494,
      "assailed": 7495,
      "garb": 7496,
      "behest": 7497,
      "attracted": 7498,
      "ulterior": 7499,
      "collecting": 7500,
      "bike": 7501,
      "standards": 7502,
      "dilig": 7503,
      "tendency": 7504,
      "week": 7505,
      "ologist": 7506,
      "emerged": 7507,
      "propriety": 7508,
      "disobeying": 7509,
      "recognized": 7510,
      "anteced": 7511,
      "annual": 7512,
      "aboratory": 7513,
      "pretext": 7514,
      "Fraudulently": 7515,
      "Members": 7516,
      "Summary": 7517,
      "IGPL": 7518,
      "defeat": 7519,
      "Postmortem": 7520,
      "repeatedly": 7521,
      "Keeping": 7522,
      "Travels": 7523,
      "axe": 7524,
      "pouring": 7525,
      "converted": 7526,
      "Instead": 7527,
      "climbed": 7528,
      "postpone": 7529,
      "Mandal": 7530,
      "Place": 7531,
      "Capacity": 7532,
      "fruits": 7533,
      "repudiation": 7534,
      "Brief": 7535,
      "Panchmarhi": 7536,
      "raped": 7537,
      "railway": 7538,
      "diplomatic": 7539,
      "pendente": 7540,
      "translation": 7541,
      "Hyundai": 7542,
      "Kolkata": 7543,
      "QUIR": 7544,
      "approximately": 7545,
      "Counterfeiting": 7546,
      "strength": 7547,
      "Cuttack": 7548,
      "Identification": 7549,
      "Jurisdiction": 7550,
      "Mortg": 7551,
      "prostitution": 7552,
      "anticipatory": 7553,
      "photograph": 7554,
      "Citizen": 7555,
      "KUMAR": 7556,
      "Kshitiz": 7557,
      "extreme": 7558,
      "defamatory": 7559,
      "beneficiary": 7560,
      "exhaustive": 7561,
      "Clarion": 7562,
      "Khadi": 7563,
      "initial": 7564,
      "inconsistencies": 7565,
      "incriminating": 7566,
      "displeasure": 7567,
      "\",": 7568,
      "**": 7569,
      ".(": 7570,
      "311": 7571,
      "418": 7572,
      "429": 7573,
      "437": 7574,
      "439": 7575,
      "828": 7576,
      "ANT": 7577,
      "AINST": 7578,
      "Ba": 7579,
      "Bai": 7580,
      "Back": 7581,
      "Care": 7582,
      "Cul": 7583,
      "Cover": 7584,
      "Cop": 7585,
      "CAS": 7586,
      "DT": 7587,
      "Dar": 7588,
      "Dom": 7589,
      "Dig": 7590,
      "Day": 7591,
      "Dev": 7592,
      "EW": 7593,
      "Four": 7594,
      "Gand": 7595,
      "Gam": 7596,
      "IF": 7597,
      "IWI": 7598,
      "JV": 7599,
      "Jab": 7600,
      "Jay": 7601,
      "Jhar": 7602,
      "Kum": 7603,
      "Kee": 7604,
      "Late": 7605,
      "LICE": 7606,
      "Mat": 7607,
      "Mish": 7608,
      "Main": 7609,
      "MAN": 7610,
      "Marri": 7611,
      "Mental": 7612,
      "NB": 7613,
      "Nor": 7614,
      "OUR": 7615,
      "P2": 7616,
      "PP": 7617,
      "Pad": 7618,
      "Pak": 7619,
      "PTO": 7620,
      "P76": 7621,
      "Rad": 7622,
      "Sad": 7623,
      "TE": 7624,
      "Ten": 7625,
      "Trust": 7626,
      "Uma": 7627,
      "Vice": 7628,
      "Wor": 7629,
      "XIV": 7630,
      "XVII": 7631,
      "Yet": 7632,
      "],": 7633,
      "ake": 7634,
      "cm": 7635,
      "crop": 7636,
      "dignity": 7637,
      "flo": 7638,
      "gap": 7639,
      "gam": 7640,
      "gments": 7641,
      "housing": 7642,
      "ib": 7643,
      "iations": 7644,
      "ique": 7645,
      "kit": 7646,
      "khand": 7647,
      "lam": 7648,
      "mp": 7649,
      "mun": 7650,
      "mens": 7651,
      "oy": 7652,
      "oing": 7653,
      "odo": 7654,
      "obey": 7655,
      "pn": 7656,
      "pan": 7657,
      "patta": 7658,
      "rac": 7659,
      "rout": 7660,
      "sle": 7661,
      "saving": 7662,
      "tort": 7663,
      "tied": 7664,
      "tending": 7665,
      "vex": 7666,
      "vention": 7667,
      "vinder": 7668,
      "wro": 7669,
      "wam": 7670,
      "yam": 7671,
      "thi": 7672,
      "thia": 7673,
      "thaman": 7674,
      "onment": 7675,
      "inical": 7676,
      "indeed": 7677,
      "injustice": 7678,
      "intra": 7679,
      "inhabit": 7680,
      "ani": 7681,
      "anasi": 7682,
      "orally": 7683,
      "enqu": 7684,
      "envis": 7685,
      "enunci": 7686,
      "edless": 7687,
      "atap": 7688,
      "attributed": 7689,
      "really": 7690,
      "recalled": 7691,
      "resume": 7692,
      "almost": 7693,
      "toA": 7694,
      "tosh": 7695,
      "ascer": 7696,
      "......": 7697,
      "chit": 7698,
      "chno": 7699,
      "sular": 7700,
      "forty": 7701,
      "forci": 7702,
      "royal": 7703,
      "stall": 7704,
      "stum": 7705,
      "demar": 7706,
      "depred": 7707,
      "...........": 7708,
      "mentation": 7709,
      "immaterial": 7710,
      "perusing": 7711,
      "perhaps": 7712,
      "iled": 7713,
      "iling": 7714,
      "confron": 7715,
      "consular": 7716,
      "ourable": 7717,
      "apposite": 7718,
      "idal": 7719,
      "wide": 7720,
      "anywhere": 7721,
      "abide": 7722,
      "shan": 7723,
      "ago": 7724,
      "agor": 7725,
      "expose": 7726,
      "pot": 7727,
      "pocket": 7728,
      "velo": 7729,
      "veget": 7730,
      "adher": 7731,
      "adjudg": 7732,
      "advice": 7733,
      "admeasuring": 7734,
      "admonition": 7735,
      "lif": 7736,
      "liqu": 7737,
      "lived": 7738,
      "urally": 7739,
      "verification": 7740,
      "whichever": 7741,
      "acquiring": 7742,
      "irre": 7743,
      "irman": 7744,
      "trac": 7745,
      "tranqu": 7746,
      "vial": 7747,
      "owes": 7748,
      "parame": 7749,
      "194": 7750,
      "disse": 7751,
      "discovered": 7752,
      "estic": 7753,
      "plant": 7754,
      "club": 7755,
      "clinical": 7756,
      "prisons": 7757,
      "outlay": 7758,
      "ights": 7759,
      "partially": 7760,
      "prejudic": 7761,
      "preclude": 7762,
      "premise": 7763,
      "fet": 7764,
      "fection": 7765,
      "feits": 7766,
      "key": 7767,
      "keting": 7768,
      "104": 7769,
      "tries": 7770,
      "cooperative": 7771,
      "rum": 7772,
      "Higher": 7773,
      "web": 7774,
      "Stamp": 7775,
      "extensive": 7776,
      "decrees": 7777,
      "formation": 7778,
      "race": 7779,
      "jee": 7780,
      "bled": 7781,
      "bloc": 7782,
      "opal": 7783,
      "umption": 7784,
      "................................................................": 7785,
      "boat": 7786,
      "maturity": 7787,
      "Prob": 7788,
      "eved": 7789,
      "athi": 7790,
      "whereupon": 7791,
      "Expert": 7792,
      "Cooperative": 7793,
      "contending": 7794,
      "contested": 7795,
      "contesting": 7796,
      "cribed": 7797,
      "istan": 7798,
      "ongoing": 7799,
      "witnessed": 7800,
      "presentation": 7801,
      "naturally": 7802,
      "134": 7803,
      "135": 7804,
      "138": 7805,
      "Chh": 7806,
      "Chenn": 7807,
      "Choud": 7808,
      "guided": 7809,
      "ipher": 7810,
      "162": 7811,
      "165": 7812,
      "174": 7813,
      "175": 7814,
      "Depos": 7815,
      "indig": 7816,
      "Relying": 7817,
      "Relev": 7818,
      "Consult": 7819,
      "Conceal": 7820,
      "256": 7821,
      "Threat": 7822,
      "Third": 7823,
      "lifetime": 7824,
      "circular": 7825,
      "shee": 7826,
      "clarify": 7827,
      "Forgery": 7828,
      "224": 7829,
      "228": 7830,
      "Ordin": 7831,
      "transmit": 7832,
      "239": 7833,
      "suppressing": 7834,
      "Discipl": 7835,
      "266": 7836,
      "267": 7837,
      "Prim": 7838,
      "Pratap": 7839,
      "necessity": 7840,
      "mination": 7841,
      "certainty": 7842,
      "Result": 7843,
      "Resumption": 7844,
      "awarding": 7845,
      "290": 7846,
      "surpr": 7847,
      "ITMENT": 7848,
      "ITAT": 7849,
      "387": 7850,
      "1970": 7851,
      "denoting": 7852,
      "ordination": 7853,
      "1951": 7854,
      "elder": 7855,
      "elabor": 7856,
      "elapsed": 7857,
      "holdings": 7858,
      "341": 7859,
      "342": 7860,
      "ORS": 7861,
      "advis": 7862,
      "entertaining": 7863,
      "banks": 7864,
      "1984": 7865,
      "Managing": 7866,
      "substituted": 7867,
      "favourable": 7868,
      "testify": 7869,
      "Ramjan": 7870,
      "taxes": 7871,
      "ISH": 7872,
      "communities": 7873,
      "imony": 7874,
      "acquitting": 7875,
      "mortgaged": 7876,
      "mortgagor": 7877,
      "wari": 7878,
      "objected": 7879,
      "398": 7880,
      "ARG": 7881,
      "Petitioners": 7882,
      "Ltd1": 7883,
      "breached": 7884,
      "Agency": 7885,
      "prescribing": 7886,
      "engros": 7887,
      "ASPECT": 7888,
      "certify": 7889,
      "numbers": 7890,
      "suspend": 7891,
      "1962": 7892,
      "Mrs": 7893,
      "credibility": 7894,
      "backdrop": 7895,
      "Regional": 7896,
      "counterfeits": 7897,
      "notifications": 7898,
      "Corpn": 7899,
      "rendering": 7900,
      "ield": 7901,
      "changed": 7902,
      "scientific": 7903,
      "brothers": 7904,
      "Khat": 7905,
      "involves": 7906,
      "consistently": 7907,
      "male": 7908,
      "convicts": 7909,
      "residents": 7910,
      "hibiting": 7911,
      "reserving": 7912,
      "Shewal": 7913,
      "NOS": 7914,
      "affects": 7915,
      "fairness": 7916,
      "realised": 7917,
      "reliability": 7918,
      "robbed": 7919,
      "adoption": 7920,
      "ranks": 7921,
      "exempt": 7922,
      "exempted": 7923,
      "lists": 7924,
      "accidental": 7925,
      "stranger": 7926,
      "proposals": 7927,
      "appreciating": 7928,
      "Needless": 7929,
      "seals": 7930,
      "Preet": 7931,
      "ganj": 7932,
      "Corporation2": 7933,
      "reversal": 7934,
      "Banar": 7935,
      "requesting": 7936,
      "dealership": 7937,
      "sooner": 7938,
      "homicidal": 7939,
      "dacoits": 7940,
      "sisters": 7941,
      "seize": 7942,
      "expertise": 7943,
      "independence": 7944,
      "Employ": 7945,
      "choose": 7946,
      "chosen": 7947,
      "developed": 7948,
      "mutually": 7949,
      "inspector": 7950,
      "obligations": 7951,
      "advertised": 7952,
      "functional": 7953,
      "solemn": 7954,
      "permanently": 7955,
      "affirms": 7956,
      "affirming": 7957,
      "methodo": 7958,
      "organisation": 7959,
      "gathered": 7960,
      "recognition": 7961,
      "concurrently": 7962,
      "deceit": 7963,
      "deceives": 7964,
      "comparable": 7965,
      "begins": 7966,
      "begging": 7967,
      "precedent": 7968,
      "precedents": 7969,
      "Examiner": 7970,
      "Bacha": 7971,
      "multiplier": 7972,
      "bonafide": 7973,
      "significance": 7974,
      "Build": 7975,
      "interfering": 7976,
      "participated": 7977,
      "supervisory": 7978,
      "succeeded": 7979,
      "succeeding": 7980,
      "burnt": 7981,
      "disclosing": 7982,
      "meantime": 7983,
      "briefly": 7984,
      "Saur": 7985,
      "Sahu": 7986,
      "exploitation": 7987,
      "rescue": 7988,
      "Indust": 7989,
      "comprised": 7990,
      "erroneously": 7991,
      "Environment": 7992,
      "POLICE": 7993,
      "conveys": 7994,
      "emerging": 7995,
      "psychologist": 7996,
      "propriet": 7997,
      "usually": 7998,
      "enforcement": 7999,
      "recognizing": 8000,
      "AGAINST": 8001,
      "afforded": 8002,
      "litigant": 8003,
      "Varanasi": 8004,
      "navig": 8005,
      "scheduled": 8006,
      "prudence": 8007,
      "......................................": 8008,
      "Sanjiv": 8009,
      "[…]”": 8010,
      "Barkat": 8011,
      "Classes": 8012,
      "Associates": 8013,
      "borrowers": 8014,
      "neighbours": 8015,
      "deliberate": 8016,
      "Affidav": 8017,
      "Cell": 8018,
      "screening": 8019,
      "illustration": 8020,
      "arrangements": 8021,
      "spirit": 8022,
      "Dharam": 8023,
      "ninety": 8024,
      "fulfilment": 8025,
      "squarely": 8026,
      "Chairman": 8027,
      "environmental": 8028,
      "pertains": 8029,
      "migrated": 8030,
      "CBDT": 8031,
      "insurer": 8032,
      "reinstate": 8033,
      "demol": 8034,
      "conveyance": 8035,
      "provider": 8036,
      "COMMITMENT": 8037,
      "conspicuous": 8038,
      "HTM": 8039,
      "Kanals": 8040,
      "procedural": 8041,
      "aggregate": 8042,
      "ambiguous": 8043,
      "Raghuthaman": 8044,
      "Suresh": 8045,
      "Urban": 8046,
      "elimin": 8047,
      "morning": 8048,
      "sparingly": 8049,
      "devolved": 8050,
      "Definitions": 8051,
      "undoubtedly": 8052,
      "diligence": 8053,
      "Citizenship": 8054,
      "Culpable": 8055,
      "Gammon": 8056,
      "IWISL": 8057,
      "Jabalpur": 8058,
      "Jharkhand": 8059,
      "Mishra": 8060,
      "Marriage": 8061,
      "Pakistan": 8062,
      "PTOSIS": 8063,
      "racial": 8064,
      "routine": 8065,
      "wrote": 8066,
      "ascertained": 8067,
      "chnology": 8068,
      "forcibly": 8069,
      "royalty": 8070,
      "depredation": 8071,
      "prejudiced": 8072,
      "Chennai": 8073,
      "Relevancy": 8074,
      "Resultantly": 8075,
      "engrossed": 8076,
      "Shewalkar": 8077,
      "methodology": 8078,
      "%,": 8079,
      ".]": 8080,
      "220": 8081,
      "335": 8082,
      "424": 8083,
      "433": 8084,
      "517": 8085,
      "5464": 8086,
      "886": 8087,
      "Aud": 8088,
      "ACE": 8089,
      "Aided": 8090,
      "BA": 8091,
      "Cas": 8092,
      "CER": 8093,
      "Citi": 8094,
      "D3": 8095,
      "Du": 8096,
      "Dowry": 8097,
      "Ef": 8098,
      "Far": 8099,
      "Gan": 8100,
      "Gau": 8101,
      "Gra": 8102,
      "HE": 8103,
      "Hame": 8104,
      "Jang": 8105,
      "Kir": 8106,
      "Know": 8107,
      "LES": 8108,
      "LTA": 8109,
      "Mill": 8110,
      "MDR": 8111,
      "Neither": 8112,
      "NES": 8113,
      "Out": 8114,
      "Omission": 8115,
      "Orig": 8116,
      "OTS": 8117,
      "PR": 8118,
      "Sit": 8119,
      "Sand": 8120,
      "Sil": 8121,
      "Sab": 8122,
      "Sus": 8123,
      "SPE": 8124,
      "SAN": 8125,
      "Scheme": 8126,
      "Tan": 8127,
      "Table": 8128,
      "Town": 8129,
      "UN": 8130,
      "Ult": 8131,
      "USION": 8132,
      "Ven": 8133,
      "Val": 8134,
      "Vill": 8135,
      "YAN": 8136,
      "bore": 8137,
      "bhai": 8138,
      "cant": 8139,
      "cind": 8140,
      "core": 8141,
      "cited": 8142,
      "cadre": 8143,
      "dt": 8144,
      "data": 8145,
      "drew": 8146,
      "ech": 8147,
      "eep": 8148,
      "eviction": 8149,
      "gir": 8150,
      "gazet": 8151,
      "hired": 8152,
      "lap": 8153,
      "mir": 8154,
      "mill": 8155,
      "nur": 8156,
      "pi": 8157,
      "ps": 8158,
      "pens": 8159,
      "ruled": 8160,
      "rarest": 8161,
      "sq": 8162,
      "sar": 8163,
      "spre": 8164,
      "sens": 8165,
      "tin": 8166,
      "tty": 8167,
      "tree": 8168,
      "tends": 8169,
      "vently": 8170,
      "venty": 8171,
      "youn": 8172,
      "zz": 8173,
      "zon": 8174,
      "“…": 8175,
      "thresh": 8176,
      "oned": 8177,
      "ones": 8178,
      "inmat": 8179,
      "insul": 8180,
      "insured": 8181,
      "annu": 8182,
      "orial": 8183,
      "orAir": 8184,
      "encour": 8185,
      "rebut": 8186,
      "repay": 8187,
      "repayment": 8188,
      "reck": 8189,
      "aling": 8190,
      "alimony": 8191
    },
    "merges": [
      [
        "t",
        "h"
      ],
      [
        "th",
        "e"
      ],
      [
        "o",
        "n"
      ],
      [
        "i",
        "n"
      ],
      [
        "e",
        "r"
      ],
      [
        ".",
        "."
      ],
      [
        "a",
        "n"
      ],
      [
        "o",
        "f"
      ],
      [
        "o",
        "r"
      ],
      [
        "e",
        "n"
      ],
      [
        "e",
        "d"
      ],
      [
        "a",
        "t"
      ],
      [
        "i",
        "s"
      ],
      [
        "r",
        "e"
      ],
      [
        "i",
        "on"
      ],
      [
        "a",
        "l"
      ],
      [
        "t",
        "o"
      ],
      [
        "a",
        "s"
      ],
      [
        "..",
        ".."
      ],
      [
        "i",
        "t"
      ],
      [
        "e",
        "s"
      ],
      [
        "a",
        "r"
      ],
      [
        "in",
        "g"
      ],
      [
        "en",
        "t"
      ],
      [
        "c",
        "t"
      ],
      [
        "o",
        "u"
      ],
      [
        "an",
        "d"
      ],
      [
        "c",
        "e"
      ],
      [
        "b",
        "e"
      ],
      [
        "c",
        "h"
      ],
      [
        "s",
        "e"
      ],
      [
        "s",
        "u"
      ],
      [
        "l",
        "e"
      ],
      [
        "f",
        "or"
      ],
      [
        "r",
        "o"
      ],
      [
        "s",
        "t"
      ],
      [
        "d",
        "e"
      ],
      [
        "....",
        "...."
      ],
      [
        "m",
        "ent"
      ],
      [
        "w",
        "h"
      ],
      [
        "d",
        "er"
      ],
      [
        "th",
        "at"
      ],
      [
        "u",
        "n"
      ],
      [
        "h",
        "e"
      ],
      [
        "n",
        "o"
      ],
      [
        "p",
        "e"
      ],
      [
        "i",
        "m"
      ],
      [
        "i",
        "c"
      ],
      [
        "b",
        "y"
      ],
      [
        "p",
        "er"
      ],
      [
        "i",
        "l"
      ],
      [
        "at",
        "ion"
      ],
      [
        "ct",
        "ion"
      ],
      [
        "o",
        "m"
      ],
      [
        "c",
        "on"
      ],
      [
        "p",
        "ro"
      ],
      [
        "ou",
        "r"
      ],
      [
        "at",
        "e"
      ],
      [
        "a",
        "p"
      ],
      [
        "i",
        "d"
      ],
      [
        "m",
        "a"
      ],
      [
        "w",
        "i"
      ],
      [
        "al",
        "l"
      ],
      [
        "wi",
        "th"
      ],
      [
        "an",
        "y"
      ],
      [
        "a",
        "b"
      ],
      [
        "c",
        "u"
      ],
      [
        "s",
        "h"
      ],
      [
        "a",
        "g"
      ],
      [
        "t",
        "er"
      ],
      [
        "our",
        "t"
      ],
      [
        "no",
        "t"
      ],
      [
        "an",
        "t"
      ],
      [
        "en",
        "ce"
      ],
      [
        "e",
        "x"
      ],
      [
        "r",
        "i"
      ],
      [
        "p",
        "o"
      ],
      [
        "v",
        "e"
      ],
      [
        "c",
        "om"
      ],
      [
        "l",
        "y"
      ],
      [
        "C",
        "ourt"
      ],
      [
        "a",
        "m"
      ],
      [
        "2",
        "0"
      ],
      [
        "the",
        "r"
      ],
      [
        "l",
        "a"
      ],
      [
        "a",
        "d"
      ],
      [
        "l",
        "i"
      ],
      [
        "wh",
        "i"
      ],
      [
        "w",
        "as"
      ],
      [
        "re",
        "s"
      ],
      [
        "u",
        "r"
      ],
      [
        "v",
        "er"
      ],
      [
        "whi",
        "ch"
      ],
      [
        "a",
        "c"
      ],
      [
        "i",
        "r"
      ],
      [
        "su",
        "ch"
      ],
      [
        "es",
        "s"
      ],
      [
        "i",
        "f"
      ],
      [
        "s",
        "on"
      ],
      [
        "of",
        "f"
      ],
      [
        "ab",
        "le"
      ],
      [
        "t",
        "r"
      ],
      [
        "un",
        "der"
      ],
      [
        "l",
        "l"
      ],
      [
        "per",
        "son"
      ],
      [
        "i",
        "g"
      ],
      [
        "s",
        "ed"
      ],
      [
        "T",
        "he"
      ],
      [
        "q",
        "u"
      ],
      [
        "sh",
        "all"
      ],
      [
        "........",
        "........"
      ],
      [
        "er",
        "e"
      ],
      [
        "ap",
        "pe"
      ],
      [
        "t",
        "ed"
      ],
      [
        "p",
        "r"
      ],
      [
        "ma",
        "y"
      ],
      [
        "t",
        "a"
      ],
      [
        "en",
        "d"
      ],
      [
        "se",
        "ction"
      ],
      [
        "t",
        "ion"
      ],
      [
        "ou",
        "n"
      ],
      [
        "a",
        "ct"
      ],
      [
        "s",
        "o"
      ],
      [
        "h",
        "as"
      ],
      [
        "a",
        "u"
      ],
      [
        "l",
        "d"
      ],
      [
        "v",
        "i"
      ],
      [
        "su",
        "b"
      ],
      [
        "o",
        "w"
      ],
      [
        "c",
        "as"
      ],
      [
        "p",
        "ar"
      ],
      [
        "th",
        "is"
      ],
      [
        "d",
        "i"
      ],
      [
        "m",
        "it"
      ],
      [
        "-",
        "-"
      ],
      [
        "a",
        "y"
      ],
      [
        "h",
        "a"
      ],
      [
        "N",
        "o"
      ],
      [
        "t",
        "y"
      ],
      [
        "u",
        "d"
      ],
      [
        "I",
        "n"
      ],
      [
        "h",
        "is"
      ],
      [
        "f",
        "in"
      ],
      [
        "i",
        "v"
      ],
      [
        "1",
        "9"
      ],
      [
        "at",
        "ed"
      ],
      [
        "d",
        "is"
      ],
      [
        "or",
        "der"
      ],
      [
        "v",
        "id"
      ],
      [
        "o",
        "ther"
      ],
      [
        "es",
        "t"
      ],
      [
        "in",
        "t"
      ],
      [
        "a",
        "re"
      ],
      [
        "u",
        "l"
      ],
      [
        "p",
        "l"
      ],
      [
        "p",
        "on"
      ],
      [
        "or",
        "d"
      ],
      [
        "it",
        "ion"
      ],
      [
        "e",
        "ar"
      ],
      [
        "cas",
        "e"
      ],
      [
        "S",
        "e"
      ],
      [
        "is",
        "on"
      ],
      [
        "c",
        "l"
      ],
      [
        "ro",
        "m"
      ],
      [
        "the",
        "re"
      ],
      [
        "is",
        "h"
      ],
      [
        "f",
        "rom"
      ],
      [
        "off",
        "ence"
      ],
      [
        "is",
        "tr"
      ],
      [
        "g",
        "e"
      ],
      [
        "pr",
        "ison"
      ],
      [
        "u",
        "t"
      ],
      [
        "ll",
        "ant"
      ],
      [
        "an",
        "ce"
      ],
      [
        "m",
        "is"
      ],
      [
        "po",
        "s"
      ],
      [
        "e",
        "m"
      ],
      [
        "it",
        "y"
      ],
      [
        "for",
        "e"
      ],
      [
        "a",
        "il"
      ],
      [
        "be",
        "en"
      ],
      [
        "d",
        "o"
      ],
      [
        "ou",
        "t"
      ],
      [
        "p",
        "la"
      ],
      [
        "d",
        "u"
      ],
      [
        "a",
        "id"
      ],
      [
        "M",
        "ag"
      ],
      [
        "Mag",
        "istr"
      ],
      [
        "prison",
        "ment"
      ],
      [
        "u",
        "s"
      ],
      [
        "ig",
        "h"
      ],
      [
        "a",
        "f"
      ],
      [
        "g",
        "h"
      ],
      [
        "appe",
        "llant"
      ],
      [
        "20",
        "2"
      ],
      [
        "Magistr",
        "ate"
      ],
      [
        "ag",
        "e"
      ],
      [
        "i",
        "ve"
      ],
      [
        "am",
        "e"
      ],
      [
        "o",
        "ver"
      ],
      [
        "cu",
        "sed"
      ],
      [
        "ou",
        "ld"
      ],
      [
        "c",
        "ord"
      ],
      [
        "par",
        "t"
      ],
      [
        "ha",
        "ve"
      ],
      [
        "p",
        "re"
      ],
      [
        "y",
        "ear"
      ],
      [
        "Se",
        "ction"
      ],
      [
        "or",
        "t"
      ],
      [
        "f",
        "e"
      ],
      [
        "f",
        "er"
      ],
      [
        "k",
        "e"
      ],
      [
        "1",
        "0"
      ],
      [
        "is",
        "ion"
      ],
      [
        "ac",
        "cused"
      ],
      [
        "on",
        "e"
      ],
      [
        "i",
        "al"
      ],
      [
        "i",
        "es"
      ],
      [
        "s",
        "ion"
      ],
      [
        "in",
        "st"
      ],
      [
        "o",
        "d"
      ],
      [
        "mit",
        "ted"
      ],
      [
        "n",
        "ed"
      ],
      [
        "t",
        "ri"
      ],
      [
        "c",
        "o"
      ],
      [
        "r",
        "u"
      ],
      [
        "ar",
        "d"
      ],
      [
        "fin",
        "e"
      ],
      [
        "s",
        "i"
      ],
      [
        "p",
        "u"
      ],
      [
        "p",
        "res"
      ],
      [
        "H",
        "igh"
      ],
      [
        "ma",
        "de"
      ],
      [
        "i",
        "z"
      ],
      [
        "W",
        "h"
      ],
      [
        "ic",
        "er"
      ],
      [
        "pro",
        "per"
      ],
      [
        "im",
        "prisonment"
      ],
      [
        "as",
        "s"
      ],
      [
        "al",
        "so"
      ],
      [
        "pon",
        "d"
      ],
      [
        "ter",
        "m"
      ],
      [
        "e",
        "ver"
      ],
      [
        "ar",
        "y"
      ],
      [
        "un",
        "ish"
      ],
      [
        "h",
        "ad"
      ],
      [
        "u",
        "re"
      ],
      [
        "w",
        "e"
      ],
      [
        "vid",
        "ence"
      ],
      [
        "year",
        "s"
      ],
      [
        "S",
        "t"
      ],
      [
        "il",
        "l"
      ],
      [
        "be",
        "fore"
      ],
      [
        "p",
        "unish"
      ],
      [
        "pond",
        "ent"
      ],
      [
        "--",
        "-"
      ],
      [
        "ou",
        "s"
      ],
      [
        "c",
        "au"
      ],
      [
        "ex",
        "t"
      ],
      [
        "pro",
        "v"
      ],
      [
        "f",
        "act"
      ],
      [
        "e",
        "t"
      ],
      [
        "ch",
        "ar"
      ],
      [
        "e",
        "vidence"
      ],
      [
        "de",
        "c"
      ],
      [
        "wh",
        "o"
      ],
      [
        "s",
        "er"
      ],
      [
        "h",
        "im"
      ],
      [
        "ic",
        "ation"
      ],
      [
        "la",
        "w"
      ],
      [
        "u",
        "st"
      ],
      [
        "o",
        "b"
      ],
      [
        "A",
        "ct"
      ],
      [
        "re",
        "e"
      ],
      [
        "im",
        "e"
      ],
      [
        "for",
        "m"
      ],
      [
        "ta",
        "in"
      ],
      [
        "s",
        "aid"
      ],
      [
        "ce",
        "ed"
      ],
      [
        "r",
        "ed"
      ],
      [
        "proper",
        "ty"
      ],
      [
        "ess",
        "ion"
      ],
      [
        "r",
        "a"
      ],
      [
        "p",
        "ur"
      ],
      [
        "0",
        "0"
      ],
      [
        "St",
        "ate"
      ],
      [
        "j",
        "e"
      ],
      [
        "le",
        "g"
      ],
      [
        "in",
        "ter"
      ],
      [
        "20",
        "1"
      ],
      [
        "b",
        "l"
      ],
      [
        "n",
        "e"
      ],
      [
        "r",
        "it"
      ],
      [
        "re",
        "cord"
      ],
      [
        "ct",
        "ed"
      ],
      [
        "oun",
        "d"
      ],
      [
        "e",
        "f"
      ],
      [
        "A",
        "p"
      ],
      [
        "c",
        "ed"
      ],
      [
        "se",
        "cu"
      ],
      [
        "m",
        "e"
      ],
      [
        "gh",
        "t"
      ],
      [
        "p",
        "ort"
      ],
      [
        "af",
        "ter"
      ],
      [
        "res",
        "pondent"
      ],
      [
        "over",
        "n"
      ],
      [
        "j",
        "ud"
      ],
      [
        "h",
        "ere"
      ],
      [
        "it",
        "s"
      ],
      [
        "Ap",
        "pe"
      ],
      [
        "g",
        "n"
      ],
      [
        "o",
        "p"
      ],
      [
        "g",
        "r"
      ],
      [
        "overn",
        "ment"
      ],
      [
        "w",
        "ere"
      ],
      [
        "a",
        "v"
      ],
      [
        "f",
        "ir"
      ],
      [
        "1",
        "2"
      ],
      [
        "s",
        "ent"
      ],
      [
        "se",
        "l"
      ],
      [
        "pro",
        "ceed"
      ],
      [
        "mis",
        "sion"
      ],
      [
        "an",
        "s"
      ],
      [
        "t",
        "ime"
      ],
      [
        "I",
        "t"
      ],
      [
        "c",
        "es"
      ],
      [
        "ag",
        "a"
      ],
      [
        "G",
        "overnment"
      ],
      [
        "off",
        "icer"
      ],
      [
        "m",
        "on"
      ],
      [
        "o",
        "l"
      ],
      [
        "k",
        "ing"
      ],
      [
        "c",
        "oun"
      ],
      [
        "t",
        "ing"
      ],
      [
        "v",
        "ant"
      ],
      [
        "u",
        "m"
      ],
      [
        "................",
        "................"
      ],
      [
        "s",
        "pe"
      ],
      [
        "b",
        "o"
      ],
      [
        "appe",
        "al"
      ],
      [
        "re",
        "as"
      ],
      [
        "li",
        "ce"
      ],
      [
        "m",
        "at"
      ],
      [
        "1",
        "1"
      ],
      [
        "com",
        "p"
      ],
      [
        "gn",
        "iz"
      ],
      [
        "c",
        "an"
      ],
      [
        "s",
        "ame"
      ],
      [
        "w",
        "ould"
      ],
      [
        "qu",
        "ir"
      ],
      [
        "aga",
        "inst"
      ],
      [
        "o",
        "c"
      ],
      [
        "P",
        "ro"
      ],
      [
        "e",
        "v"
      ],
      [
        "d",
        "ated"
      ],
      [
        "N",
        "T"
      ],
      [
        "is",
        "su"
      ],
      [
        "le",
        "ar"
      ],
      [
        "n",
        "ess"
      ],
      [
        "a",
        "th"
      ],
      [
        "bl",
        "ic"
      ],
      [
        "........",
        "...."
      ],
      [
        "di",
        "re"
      ],
      [
        "in",
        "al"
      ],
      [
        "h",
        "er"
      ],
      [
        "is",
        "e"
      ],
      [
        "ap",
        "pl"
      ],
      [
        "reas",
        "on"
      ],
      [
        "p",
        "t"
      ],
      [
        "st",
        "ate"
      ],
      [
        "c",
        "er"
      ],
      [
        "ext",
        "end"
      ],
      [
        "be",
        "ing"
      ],
      [
        "wh",
        "ere"
      ],
      [
        "E",
        "x"
      ],
      [
        "ment",
        "s"
      ],
      [
        "all",
        "y"
      ],
      [
        "c",
        "la"
      ],
      [
        "d",
        "es"
      ],
      [
        "am",
        "in"
      ],
      [
        "1",
        "4"
      ],
      [
        "J",
        "ud"
      ],
      [
        "f",
        "il"
      ],
      [
        "In",
        "di"
      ],
      [
        "p",
        "tion"
      ],
      [
        "t",
        "e"
      ],
      [
        "re",
        "g"
      ],
      [
        "i",
        "ed"
      ],
      [
        "............",
        ".."
      ],
      [
        "ail",
        "able"
      ],
      [
        "si",
        "der"
      ],
      [
        "no",
        "w"
      ],
      [
        "w",
        "er"
      ],
      [
        "re",
        "le"
      ],
      [
        "E",
        "NT"
      ],
      [
        "c",
        "ess"
      ],
      [
        "b",
        "er"
      ],
      [
        "je",
        "ct"
      ],
      [
        "C",
        "r"
      ],
      [
        "wh",
        "en"
      ],
      [
        "C",
        "o"
      ],
      [
        "202",
        "3"
      ],
      [
        "................................",
        ".............."
      ],
      [
        "su",
        "m"
      ],
      [
        "iv",
        "il"
      ],
      [
        "P",
        "W"
      ],
      [
        "th",
        "or"
      ],
      [
        "ex",
        "amin"
      ],
      [
        "e",
        "cu"
      ],
      [
        "con",
        "sider"
      ],
      [
        "com",
        "mitted"
      ],
      [
        "it",
        "ness"
      ],
      [
        "jud",
        "g"
      ],
      [
        "con",
        "d"
      ],
      [
        "con",
        "t"
      ],
      [
        "proceed",
        "ing"
      ],
      [
        "c",
        "ri"
      ],
      [
        "at",
        "ing"
      ],
      [
        "is",
        "t"
      ],
      [
        "b",
        "ut"
      ],
      [
        "pe",
        "t"
      ],
      [
        "c",
        "r"
      ],
      [
        "on",
        "g"
      ],
      [
        "an",
        "k"
      ],
      [
        "S",
        "C"
      ],
      [
        "i",
        "ther"
      ],
      [
        "as",
        "ed"
      ],
      [
        "g",
        "iv"
      ],
      [
        "w",
        "itness"
      ],
      [
        "in",
        "v"
      ],
      [
        "vid",
        "ed"
      ],
      [
        "cau",
        "se"
      ],
      [
        "p",
        "ay"
      ],
      [
        "do",
        "cu"
      ],
      [
        "gniz",
        "able"
      ],
      [
        "1",
        "8"
      ],
      [
        "bo",
        "th"
      ],
      [
        "M",
        "ENT"
      ],
      [
        "pres",
        "ent"
      ],
      [
        "po",
        "lice"
      ],
      [
        "J",
        "U"
      ],
      [
        "u",
        "pon"
      ],
      [
        "m",
        "an"
      ],
      [
        "i",
        "re"
      ],
      [
        "i",
        "ce"
      ],
      [
        "h",
        "ar"
      ],
      [
        "20",
        "0"
      ],
      [
        "tri",
        "al"
      ],
      [
        "m",
        "o"
      ],
      [
        "w",
        "rit"
      ],
      [
        "k",
        "en"
      ],
      [
        "pu",
        "blic"
      ],
      [
        "e",
        "w"
      ],
      [
        "f",
        "ul"
      ],
      [
        "k",
        "now"
      ],
      [
        "fir",
        "st"
      ],
      [
        "w",
        "ard"
      ],
      [
        "l",
        "and"
      ],
      [
        "D",
        "G"
      ],
      [
        "a",
        "ch"
      ],
      [
        "A",
        "r"
      ],
      [
        "n",
        "at"
      ],
      [
        "at",
        "es"
      ],
      [
        "1",
        "3"
      ],
      [
        "S",
        "ing"
      ],
      [
        "c",
        "ourt"
      ],
      [
        "C",
        "h"
      ],
      [
        "e",
        "ither"
      ],
      [
        "Appe",
        "al"
      ],
      [
        "JU",
        "DG"
      ],
      [
        "appe",
        "ar"
      ],
      [
        "Indi",
        "a"
      ],
      [
        "JUDG",
        "MENT"
      ],
      [
        "1",
        "5"
      ],
      [
        "re",
        "st"
      ],
      [
        "com",
        "pla"
      ],
      [
        ")",
        ","
      ],
      [
        "…",
        "…"
      ],
      [
        "with",
        "in"
      ],
      [
        "g",
        "u"
      ],
      [
        "spe",
        "c"
      ],
      [
        "char",
        "ge"
      ],
      [
        "prov",
        "ision"
      ],
      [
        "pe",
        "ct"
      ],
      [
        "i",
        "p"
      ],
      [
        "au",
        "thor"
      ],
      [
        "i",
        "i"
      ],
      [
        "be",
        "t"
      ],
      [
        "im",
        "inal"
      ],
      [
        "judg",
        "ment"
      ],
      [
        "appl",
        "ication"
      ],
      [
        "S",
        "an"
      ],
      [
        "re",
        "l"
      ],
      [
        "de",
        "ath"
      ],
      [
        "per",
        "i"
      ],
      [
        "A",
        "n"
      ],
      [
        "P",
        "age"
      ],
      [
        "ow",
        "n"
      ],
      [
        "v",
        "ing"
      ],
      [
        "am",
        "oun"
      ],
      [
        "1",
        "6"
      ],
      [
        "f",
        "ur"
      ],
      [
        "u",
        "se"
      ],
      [
        "ex",
        "ecu"
      ],
      [
        "on",
        "ly"
      ],
      [
        "1",
        "7"
      ],
      [
        "ar",
        "r"
      ],
      [
        "g",
        "o"
      ],
      [
        "po",
        "wer"
      ],
      [
[...]
